{
  "version": "1.0",
  "truncation": null,
  "padding": null,
  "added_tokens": [
    {
      "id": 0,
      "content": "[UNK]",
      "single_word": false,
      "lstrip": false,
      "rstrip": false,
      "normalized": false,
      "special": true
    },
    {
      "id": 1,
      "content": "[PAD]",
      "single_word": false,
      "lstrip": false,
      "rstrip": false,
      "normalized": false,
      "special": true
    },
    {
      "id": 2,
      "content": "[BOS]",
      "single_word": false,
      "lstrip": false,
      "rstrip": false,
      "normalized": false,
      "special": true
    },
    {
      "id": 3,
      "content": "[EOS]",
      "single_word": false,
      "lstrip": false,
      "rstrip": false,
      "normalized": false,
      "special": true
    }
  ],
  "normalizer": null,
  "pre_tokenizer": {
    "type": "Whitespace"
  },
  "post_processor": null,
  "decoder": null,
  "model": {
    "type": "BPE",
    "dropout": null,
    "unk_token": "[UNK]",
    "continuing_subword_prefix": null,
    "end_of_word_suffix": null,
    "fuse_unk": false,
    "byte_fallback": false,
    "ignore_merges": false,
    "vocab": {
      "[UNK]": 0,
      "[PAD]": 1,
      "[BOS]": 2,
      "[EOS]": 3,
      "!": 4,
      "(": 5,
      ")": 6,
      "*": 7,
      ",": 8,
      ".": 9,
      "0": 10,
      "1": 11,
      "2": 12,
      "3": 13,
      "4": 14,
      "5": 15,
      "6": 16,
      "7": 17,
      "8": 18,
      "9": 19,
      ":": 20,
      ";": 21,
      "?": 22,
      "A": 23,
      "B": 24,
      "C": 25,
      "D": 26,
      "E": 27,
      "F": 28,
      "G": 29,
      "H": 30,
      "I": 31,
      "J": 32,
      "K": 33,
      "L": 34,
      "M": 35,
      "N": 36,
      "O": 37,
      "P": 38,
      "R": 39,
      "S": 40,
      "T": 41,
      "U": 42,
      "V": 43,
      "W": 44,
      "X": 45,
      "Y": 46,
      "Z": 47,
      "[": 48,
      "]": 49,
      "a": 50,
      "b": 51,
      "c": 52,
      "d": 53,
      "e": 54,
      "f": 55,
      "g": 56,
      "h": 57,
      "i": 58,
      "j": 59,
      "k": 60,
      "l": 61,
      "m": 62,
      "n": 63,
      "o": 64,
      "p": 65,
      "q": 66,
      "r": 67,
      "s": 68,
      "t": 69,
      "u": 70,
      "v": 71,
      "w": 72,
      "y": 73,
      "z": 74,
      "Â": 75,
      "Ç": 76,
      "Ö": 77,
      "Ü": 78,
      "â": 79,
      "ä": 80,
      "ç": 81,
      "é": 82,
      "î": 83,
      "ö": 84,
      "ù": 85,
      "û": 86,
      "ü": 87,
      "ğ": 88,
      "İ": 89,
      "ı": 90,
      "Ş": 91,
      "ş": 92,
      "–": 93,
      "—": 94,
      "‘": 95,
      "’": 96,
      "“": 97,
      "”": 98,
      "…": 99,
      "ﬀ": 100,
      "ﬁ": 101,
      "ﬂ": 102,
      "in": 103,
      "an": 104,
      "ar": 105,
      "er": 106,
      "en": 107,
      "bi": 108,
      "ın": 109,
      "di": 110,
      "de": 111,
      "da": 112,
      "bir": 113,
      "ma": 114,
      "ya": 115,
      "or": 116,
      "le": 117,
      "un": 118,
      "la": 119,
      "du": 120,
      "ka": 121,
      "ol": 122,
      "lar": 123,
      "yor": 124,
      "on": 125,
      "dı": 126,
      "ek": 127,
      "li": 128,
      "ak": 129,
      "ler": 130,
      "ün": 131,
      "ey": 132,
      "tı": 133,
      "mi": 134,
      "bu": 135,
      "iç": 136,
      "lı": 137,
      "as": 138,
      "ki": 139,
      "ini": 140,
      "ba": 141,
      "ti": 142,
      "ov": 143,
      "ha": 144,
      "mı": 145,
      "den": 146,
      "gi": 147,
      "ve": 148,
      "ır": 149,
      "si": 150,
      "yle": 151,
      "sa": 152,
      "me": 153,
      "ce": 154,
      "ta": 155,
      "ız": 156,
      "ra": 157,
      "gö": 158,
      "dü": 159,
      "el": 160,
      "ği": 161,
      "et": 162,
      "dan": 163,
      "ok": 164,
      "ine": 165,
      "öyle": 166,
      "ken": 167,
      "tu": 168,
      "se": 169,
      "mu": 170,
      "te": 171,
      "im": 172,
      "ye": 173,
      "ne": 174,
      "ru": 175,
      "unu": 176,
      "ık": 177,
      "yordu": 178,
      "ıl": 179,
      "şey": 180,
      "mış": 181,
      "için": 182,
      "ik": 183,
      "ay": 184,
      "ğı": 185,
      "üz": 186,
      "miş": 187,
      "ür": 188,
      "ını": 189,
      "ca": 190,
      "ge": 191,
      "baş": 192,
      "san": 193,
      "al": 194,
      "kar": 195,
      "ben": 196,
      "ku": 197,
      "yan": 198,
      "em": 199,
      "ına": 200,
      "kol": 201,
      "az": 202,
      "onu": 203,
      "iş": 204,
      "ım": 205,
      "ir": 206,
      "ama": 207,
      "nik": 208,
      "siz": 209,
      "nikov": 210,
      "um": 211,
      "man": 212,
      "gör": 213,
      "ları": 214,
      "Ras": 215,
      "ke": 216,
      "ında": 217,
      "kolnikov": 218,
      "Raskolnikov": 219,
      "su": 220,
      "gibi": 221,
      "mek": 222,
      "ver": 223,
      "is": 224,
      "öz": 225,
      "at": 226,
      "kendi": 227,
      "var": 228,
      "ön": 229,
      "çık": 230,
      "son": 231,
      "duğ": 232,
      "cak": 233,
      "na": 234,
      "düş": 235,
      "do": 236,
      "her": 237,
      "diye": 238,
      "eye": 239,
      "lık": 240,
      "Son": 241,
      "iz": 242,
      "leri": 243,
      "lu": 244,
      "lü": 245,
      "lik": 246,
      "hiç": 247,
      "mak": 248,
      "ça": 249,
      "deği": 250,
      "ri": 251,
      "yı": 252,
      "lan": 253,
      "iniz": 254,
      "sin": 255,
      "tan": 256,
      "kad": 257,
      "ger": 258,
      "çok": 259,
      "şı": 260,
      "bile": 261,
      "şa": 262,
      "ara": 263,
      "yorum": 264,
      "dedi": 265,
      "daha": 266,
      "bak": 267,
      "gel": 268,
      "ovna": 269,
      "şu": 270,
      "düşün": 271,
      "cı": 272,
      "bili": 273,
      "yi": 274,
      "il": 275,
      "değil": 276,
      "ev": 277,
      "muş": 278,
      "arak": 279,
      "bun": 280,
      "anla": 281,
      "Bu": 282,
      "ük": 283,
      "mıştı": 284,
      "üt": 285,
      "inde": 286,
      "ola": 287,
      "maya": 288,
      "söyle": 289,
      "böyle": 290,
      "olu": 291,
      "Ama": 292,
      "ada": 293,
      "st": 294,
      "yap": 295,
      "bil": 296,
      "sı": 297,
      "olduğ": 298,
      "gü": 299,
      "yer": 300,
      "der": 301,
      "konu": 302,
      "unuz": 303,
      "sine": 304,
      "ana": 305,
      "ladı": 306,
      "eni": 307,
      "cek": 308,
      "ların": 309,
      "mişti": 310,
      "çek": 311,
      "kal": 312,
      "dır": 313,
      "bul": 314,
      "za": 315,
      "kap": 316,
      "söz": 317,
      "kü": 318,
      "ış": 319,
      "yla": 320,
      "tü": 321,
      "..": 322,
      "Sonya": 323,
      "göz": 324,
      "duy": 325,
      "gün": 326,
      "sın": 327,
      "sonra": 328,
      "ko": 329,
      "sini": 330,
      "be": 331,
      "asıl": 332,
      "doğ": 333,
      ".–": 334,
      "ütün": 335,
      "duru": 336,
      "yüz": 337,
      "sun": 338,
      "olma": 339,
      "mü": 340,
      "meye": 341,
      "yok": 342,
      "geç": 343,
      "ten": 344,
      "len": 345,
      "sen": 346,
      "sor": 347,
      "ğır": 348,
      "Bir": 349,
      "tır": 350,
      "dir": 351,
      "onun": 352,
      "kız": 353,
      "tir": 354,
      "yar": 355,
      "lerini": 356,
      "oviç": 357,
      "sunuz": 358,
      "kadar": 359,
      "doğru": 360,
      "Pet": 361,
      "bilir": 362,
      "diği": 363,
      "kı": 364,
      "ğini": 365,
      "Ne": 366,
      "Ro": 367,
      "iyi": 368,
      "üzer": 369,
      "kend": 370,
      "hem": 371,
      "insan": 372,
      "tık": 373,
      "kor": 374,
      "ının": 375,
      "!..": 376,
      "ci": 377,
      "dik": 378,
      "dım": 379,
      "zaman": 380,
      "hin": 381,
      "van": 382,
      "dim": 383,
      "ğını": 384,
      "dur": 385,
      "Ben": 386,
      "sız": 387,
      "bütün": 388,
      "gerek": 389,
      "re": 390,
      "karşı": 391,
      "nasıl": 392,
      "ap": 393,
      "umi": 394,
      "olan": 395,
      "umihin": 396,
      "Raz": 397,
      "Razumihin": 398,
      "Petr": 399,
      "içinde": 400,
      "inden": 401,
      "yu": 402,
      "arı": 403,
      "sür": 404,
      "uz": 405,
      "git": 406,
      "mez": 407,
      "ydi": 408,
      "iki": 409,
      "laş": 410,
      "ede": 411,
      "nın": 412,
      "bo": 413,
      "he": 414,
      "vet": 415,
      "cu": 416,
      "imdi": 417,
      "ınız": 418,
      "yük": 419,
      "şeyler": 420,
      "İvan": 421,
      "eri": 422,
      "Dun": 423,
      "sır": 424,
      "ot": 425,
      "ından": 426,
      "bura": 427,
      "kapı": 428,
      "larını": 429,
      "dığı": 430,
      "vi": 431,
      "maz": 432,
      "yal": 433,
      "hat": 434,
      "nız": 435,
      "iste": 436,
      "başka": 437,
      "başladı": 438,
      "ğr": 439,
      "adam": 440,
      "bulun": 441,
      "açık": 442,
      "otu": 443,
      "anda": 444,
      "hiçbir": 445,
      "din": 446,
      "ona": 447,
      "ünü": 448,
      "tek": 449,
      "olduğunu": 450,
      "yak": 451,
      "inin": 452,
      "İvanovna": 453,
      "geli": 454,
      "önce": 455,
      "dön": 456,
      "tak": 457,
      "Petroviç": 458,
      "ğa": 459,
      "mey": 460,
      "yeni": 461,
      "bana": 462,
      "vardı": 463,
      "say": 464,
      "so": 465,
      "yorsunuz": 466,
      "oda": 467,
      "bağır": 468,
      "birden": 469,
      "sar": 470,
      "yine": 471,
      "par": 472,
      "olarak": 473,
      "ter": 474,
      "lara": 475,
      "benim": 476,
      "unda": 477,
      "kö": 478,
      "ıp": 479,
      "hemen": 480,
      "bel": 481,
      "oş": 482,
      "Dunya": 483,
      "sö": 484,
      "hal": 485,
      "aç": 486,
      "ceği": 487,
      "oldu": 488,
      "yot": 489,
      "ses": 490,
      "kaç": 491,
      "etti": 492,
      "muştu": 493,
      "bü": 494,
      "am": 495,
      "yür": 496,
      "erek": 497,
      "kez": 498,
      "Evet": 499,
      "yaz": 500,
      "una": 501,
      "müş": 502,
      "kat": 503,
      "han": 504,
      "bır": 505,
      "to": 506,
      "gir": 507,
      "dür": 508,
      "deş": 509,
      "ası": 510,
      "Siz": 511,
      "edi": 512,
      "ünkü": 513,
      "ğer": 514,
      "aş": 515,
      "erin": 516,
      "can": 517,
      "acı": 518,
      "daki": 519,
      "neden": 520,
      "ağ": 521,
      "gay": 522,
      "ör": 523,
      "tür": 524,
      "ah": 525,
      "olduğu": 526,
      "hep": 527,
      "yalnız": 528,
      "es": 529,
      "lov": 530,
      "şimdi": 531,
      "sına": 532,
      "size": 533,
      "söy": 534,
      "Svi": 535,
      "dri": 536,
      "gaylov": 537,
      "Svidri": 538,
      "Svidrigaylov": 539,
      "durum": 540,
      "siniz": 541,
      "kim": 542,
      "suz": 543,
      "lüm": 544,
      "kan": 545,
      "kardeş": 546,
      "beni": 547,
      "bunu": 548,
      "miz": 549,
      "ul": 550,
      "Por": 551,
      "tas": 552,
      "ıyordu": 553,
      "ydı": 554,
      "gı": 555,
      "ıyor": 556,
      "ğım": 557,
      "Kat": 558,
      "ince": 559,
      "şeyi": 560,
      "hatta": 561,
      "ﬁri": 562,
      "görü": 563,
      "Porﬁri": 564,
      "ğren": 565,
      "öl": 566,
      "kır": 567,
      "men": 568,
      "biri": 569,
      "ünde": 570,
      "göst": 571,
      "büyük": 572,
      "ran": 573,
      "lış": 574,
      "erina": 575,
      "Katerina": 576,
      ",–": 577,
      "gu": 578,
      "ili": 579,
      "pek": 580,
      "sık": 581,
      "sev": 582,
      "kadın": 583,
      "An": 584,
      "inan": 585,
      "mız": 586,
      "konuş": 587,
      "lama": 588,
      "düşünce": 589,
      "yon": 590,
      "şaş": 591,
      "ile": 592,
      "Hem": 593,
      "artık": 594,
      "bek": 595,
      "çe": 596,
      "lim": 597,
      "vu": 598,
      "olur": 599,
      "has": 600,
      "üm": 601,
      "ğu": 602,
      "hoş": 603,
      "ayır": 604,
      "Roman": 605,
      "para": 606,
      "erdi": 607,
      "yat": 608,
      "kendini": 609,
      "ip": 610,
      "kuş": 611,
      "bırak": 612,
      "ocu": 613,
      "biz": 614,
      "kes": 615,
      "likle": 616,
      "bağırdı": 617,
      "sını": 618,
      "çıkar": 619,
      "yol": 620,
      "ere": 621,
      "düşündü": 622,
      "üzerine": 623,
      "ven": 624,
      "gerçek": 625,
      "Her": 626,
      "dün": 627,
      "lardı": 628,
      "uy": 629,
      "yaş": 630,
      "lay": 631,
      "lıyor": 632,
      "sizin": 633,
      "bunlar": 634,
      "takım": 635,
      "dr": 636,
      "biraz": 637,
      "üne": 638,
      "Sonra": 639,
      "tam": 640,
      "oku": 641,
      "Pyot": 642,
      "göre": 643,
      "ilgi": 644,
      "korku": 645,
      "Pyotr": 646,
      "şi": 647,
      "nem": 648,
      "lek": 649,
      "sal": 650,
      "aşa": 651,
      "ayr": 652,
      "kur": 653,
      "kuşku": 654,
      "birtakım": 655,
      "mesi": 656,
      "duğu": 657,
      "ocuk": 658,
      "Ve": 659,
      "küç": 660,
      "ece": 661,
      "gen": 662,
      "yse": 663,
      "lerden": 664,
      "haf": 665,
      "isti": 666,
      "otur": 667,
      "öğren": 668,
      "üst": 669,
      "lere": 670,
      "kendisi": 671,
      "Tan": 672,
      "alt": 673,
      "olay": 674,
      "lerin": 675,
      "ması": 676,
      "mut": 677,
      "burada": 678,
      "işte": 679,
      "Ken": 680,
      "kendisine": 681,
      "çev": 682,
      "lerine": 683,
      "karar": 684,
      "gibiydi": 685,
      "top": 686,
      "yet": 687,
      "İş": 688,
      "dığını": 689,
      "kendisini": 690,
      "luk": 691,
      "Hayır": 692,
      "On": 693,
      "diğini": 694,
      "sana": 695,
      "üç": 696,
      "dav": 697,
      "larda": 698,
      "Tanr": 699,
      "çi": 700,
      "Şu": 701,
      "asına": 702,
      "hatır": 703,
      "sınız": 704,
      "sey": 705,
      "yıl": 706,
      "diğ": 707,
      "heri": 708,
      "sanki": 709,
      "yeniden": 710,
      "fa": 711,
      "özel": 712,
      "hasta": 713,
      "Al": 714,
      "ad": 715,
      "arka": 716,
      "üzerinde": 717,
      "ayı": 718,
      "hak": 719,
      "tar": 720,
      "eder": 721,
      "layı": 722,
      "lerde": 723,
      "tığı": 724,
      "oğ": 725,
      "musunuz": 726,
      "ceğim": 727,
      "Ah": 728,
      "anlı": 729,
      "madan": 730,
      "kesin": 731,
      "sinin": 732,
      "halde": 733,
      "çocuk": 734,
      "unun": 735,
      "sah": 736,
      "gülüm": 737,
      "!”": 738,
      "ecek": 739,
      "saat": 740,
      "senin": 741,
      "belki": 742,
      "laya": 743,
      "yalnızca": 744,
      "larında": 745,
      "gele": 746,
      "getir": 747,
      "aşağı": 748,
      "dal": 749,
      "erdiven": 750,
      "Sem": 751,
      "ban": 752,
      "gide": 753,
      "Semyon": 754,
      "ysa": 755,
      "kay": 756,
      "eği": 757,
      "öf": 758,
      "yorsun": 759,
      "davran": 760,
      "ül": 761,
      "larla": 762,
      "larına": 763,
      "bur": 764,
      "lır": 765,
      "dya": 766,
      "lığ": 767,
      "giz": 768,
      "likte": 769,
      "dakika": 770,
      "ser": 771,
      "lığı": 772,
      "gidi": 773,
      "mem": 774,
      "gördü": 775,
      "?..": 776,
      "Alek": 777,
      "tit": 778,
      "derece": 779,
      "Rodya": 780,
      "ner": 781,
      "lak": 782,
      "içeri": 783,
      "sandr": 784,
      "bakış": 785,
      "Aleksandr": 786,
      "suç": 787,
      "beş": 788,
      "Mar": 789,
      "zor": 790,
      "dikkat": 791,
      "Pul": 792,
      "heriya": 793,
      "Aleksandrovna": 794,
      "Pulheriya": 795,
      "Böyle": 796,
      "eş": 797,
      "rub": 798,
      "kork": 799,
      "göster": 800,
      "Hiç": 801,
      "far": 802,
      "lerle": 803,
      "sağ": 804,
      "ılan": 805,
      "görün": 806,
      "boy": 807,
      "min": 808,
      "ruble": 809,
      "Bütün": 810,
      "jin": 811,
      "yim": 812,
      "ştu": 813,
      "lardan": 814,
      "lım": 815,
      "hay": 816,
      "meden": 817,
      "çalış": 818,
      "ilk": 819,
      "Av": 820,
      "tuhaf": 821,
      "alan": 822,
      "soru": 823,
      "Lu": 824,
      "eğ": 825,
      "çünkü": 826,
      "cağ": 827,
      "sizi": 828,
      "yüzü": 829,
      "İşte": 830,
      "Dem": 831,
      "bas": 832,
      "zen": 833,
      "azla": 834,
      "kesi": 835,
      "olacak": 836,
      "önem": 837,
      "üp": 838,
      "kala": 839,
      "tut": 840,
      "güç": 841,
      "eski": 842,
      "eç": 843,
      "asında": 844,
      "başla": 845,
      "aldı": 846,
      "uzun": 847,
      "?”": 848,
      "fen": 849,
      "baktı": 850,
      "yürü": 851,
      "küçük": 852,
      "Lujin": 853,
      "Sen": 854,
      "sında": 855,
      "yım": 856,
      "leş": 857,
      "saç": 858,
      "ni": 859,
      "anne": 860,
      "lir": 861,
      "yani": 862,
      "kendine": 863,
      "merdiven": 864,
      "sek": 865,
      "ğin": 866,
      "olsun": 867,
      "anlat": 868,
      "gin": 869,
      "birlikte": 870,
      "inizi": 871,
      "yoktu": 872,
      "ste": 873,
      "zı": 874,
      "orta": 875,
      "fark": 876,
      "Da": 877,
      "kın": 878,
      "cağım": 879,
      "benz": 880,
      "bunları": 881,
      "sıra": 882,
      "fazla": 883,
      "nı": 884,
      "ret": 885,
      "tya": 886,
      "üzel": 887,
      "ep": 888,
      "kin": 889,
      "lerinde": 890,
      "sordu": 891,
      "sırada": 892,
      "astas": 893,
      "dotya": 894,
      "geldi": 895,
      "söylü": 896,
      "şaşır": 897,
      "Romanovna": 898,
      "Avdotya": 899,
      "Nastas": 900,
      "ledi": 901,
      "tal": 902,
      "işi": 903,
      "biliyor": 904,
      "kaldır": 905,
      "Nastasya": 906,
      "atı": 907,
      "cü": 908,
      "İn": 909,
      "Şimdi": 910,
      "ister": 911,
      "aten": 912,
      "duygu": 913,
      "deli": 914,
      "gitti": 915,
      "Öyle": 916,
      "çı": 917,
      "tanı": 918,
      "Nasıl": 919,
      "bar": 920,
      "dö": 921,
      "it": 922,
      "üş": 923,
      "buraya": 924,
      "Çok": 925,
      "ünden": 926,
      "veri": 927,
      "değildi": 928,
      "miştim": 929,
      "sinir": 930,
      "süre": 931,
      "Kendi": 932,
      "Ger": 933,
      "niçin": 934,
      "uğ": 935,
      "kaf": 936,
      "attı": 937,
      "Birden": 938,
      "doğrusu": 939,
      "ağır": 940,
      "adım": 941,
      "gun": 942,
      "dayan": 943,
      "dık": 944,
      "sap": 945,
      "ceğini": 946,
      "lıkla": 947,
      "mam": 948,
      "haz": 949,
      "Ya": 950,
      "Yok": 951,
      "ala": 952,
      "güzel": 953,
      "heye": 954,
      "bunun": 955,
      "kalk": 956,
      "gözlerini": 957,
      "lya": 958,
      "Çünkü": 959,
      "ıs": 960,
      "rada": 961,
      "önünde": 962,
      "sim": 963,
      "çar": 964,
      "olmuştu": 965,
      "tım": 966,
      "tik": 967,
      "duyu": 968,
      "belli": 969,
      "uğra": 970,
      "çim": 971,
      "ekli": 972,
      "larından": 973,
      "önemli": 974,
      "Daha": 975,
      "gın": 976,
      "lında": 977,
      "miyorum": 978,
      "aynı": 979,
      "yandan": 980,
      "geri": 981,
      "bilecek": 982,
      "öldür": 983,
      "Du": 984,
      "va": 985,
      "dev": 986,
      "mayı": 987,
      "sinden": 988,
      "şam": 989,
      "fır": 990,
      "har": 991,
      "madı": 992,
      "cağı": 993,
      "yana": 994,
      "diğim": 995,
      "oturu": 996,
      "gülümse": 997,
      "nerede": 998,
      "cin": 999,
      "diniz": 1000,
      "ise": 1001,
      "dion": 1002,
      "ırım": 1003,
      "geçir": 1004,
      "Rodion": 1005,
      "ydu": 1006,
      "çak": 1007,
      "ğü": 1008,
      "biçim": 1009,
      "tup": 1010,
      "karı": 1011,
      "ras": 1012,
      "orada": 1013,
      "lerinin": 1014,
      "rahat": 1015,
      "ıldı": 1016,
      "çıktı": 1017,
      "arada": 1018,
      "gül": 1019,
      "dinle": 1020,
      "kâ": 1021,
      "inci": 1022,
      "demek": 1023,
      "lah": 1024,
      "yordum": 1025,
      "lük": 1026,
      "çabu": 1027,
      "yapa": 1028,
      "sesle": 1029,
      "gerçekten": 1030,
      "şe": 1031,
      "birkaç": 1032,
      "kah": 1033,
      "yorlar": 1034,
      "lıyordu": 1035,
      "baka": 1036,
      "ğim": 1037,
      "konuşu": 1038,
      "soy": 1039,
      "kötü": 1040,
      "Tanrım": 1041,
      "ayak": 1042,
      "dın": 1043,
      "bugün": 1044,
      "tah": 1045,
      "mur": 1046,
      "cağını": 1047,
      "uzak": 1048,
      "lâ": 1049,
      "âlâ": 1050,
      "enin": 1051,
      "akl": 1052,
      "gece": 1053,
      "çağır": 1054,
      "larının": 1055,
      "sarhoş": 1056,
      "bekle": 1057,
      "Demek": 1058,
      "Kap": 1059,
      "Yal": 1060,
      "Zo": 1061,
      "utan": 1062,
      "olsa": 1063,
      "liğ": 1064,
      "götür": 1065,
      "yere": 1066,
      "döndü": 1067,
      "soka": 1068,
      "simov": 1069,
      "Zosimov": 1070,
      ".”": 1071,
      "eyi": 1072,
      "etme": 1073,
      "sul": 1074,
      "olup": 1075,
      "durdu": 1076,
      "As": 1077,
      "Ko": 1078,
      "ğmen": 1079,
      "İyi": 1080,
      "enc": 1081,
      "ıntı": 1082,
      "yormuş": 1083,
      "dış": 1084,
      "haﬁ": 1085,
      "gön": 1086,
      "belir": 1087,
      "Zam": 1088,
      "ber": 1089,
      "eğer": 1090,
      "sak": 1091,
      "…”": 1092,
      "öylesine": 1093,
      "musun": 1094,
      "sinde": 1095,
      "gelince": 1096,
      "yotov": 1097,
      "ört": 1098,
      "özellikle": 1099,
      "Zamyotov": 1100,
      "Bak": 1101,
      "ddi": 1102,
      "ğın": 1103,
      "sus": 1104,
      "maktan": 1105,
      "söyleye": 1106,
      "cık": 1107,
      "yın": 1108,
      "şek": 1109,
      "hah": 1110,
      "met": 1111,
      "durumda": 1112,
      "Romanoviç": 1113,
      "Yalnız": 1114,
      "aya": 1115,
      "uyu": 1116,
      "dam": 1117,
      "başını": 1118,
      "verdi": 1119,
      "yardım": 1120,
      "teki": 1121,
      "sahi": 1122,
      "dak": 1123,
      "makta": 1124,
      "müyle": 1125,
      "aptal": 1126,
      "müştü": 1127,
      "hâlâ": 1128,
      "sının": 1129,
      "görüş": 1130,
      "sevin": 1131,
      "Oysa": 1132,
      "zi": 1133,
      "ani": 1134,
      "lerim": 1135,
      "ğış": 1136,
      "kıp": 1137,
      "saygı": 1138,
      "çarp": 1139,
      "ga": 1140,
      "zaten": 1141,
      "bit": 1142,
      "değer": 1143,
      "mamıştı": 1144,
      "liği": 1145,
      "elini": 1146,
      "buna": 1147,
      "hazır": 1148,
      "dolu": 1149,
      "ğınız": 1150,
      "bah": 1151,
      "medi": 1152,
      "rağmen": 1153,
      "yoksa": 1154,
      "Semyonovna": 1155,
      "rıl": 1156,
      "süz": 1157,
      "seni": 1158,
      "dair": 1159,
      "aklı": 1160,
      "lerdi": 1161,
      "tim": 1162,
      "neler": 1163,
      "geçen": 1164,
      "gelip": 1165,
      "gelir": 1166,
      "mızı": 1167,
      "genç": 1168,
      "av": 1169,
      "olmuş": 1170,
      "miyor": 1171,
      "taş": 1172,
      "etmek": 1173,
      "şeye": 1174,
      "keli": 1175,
      "altında": 1176,
      "saçma": 1177,
      "heyecan": 1178,
      "San": 1179,
      "Sonunda": 1180,
      "değiş": 1181,
      "sından": 1182,
      "bez": 1183,
      "Petrovna": 1184,
      "olduk": 1185,
      "şaşkın": 1186,
      "çevre": 1187,
      "boyun": 1188,
      "kâğı": 1189,
      "haﬁf": 1190,
      "Bun": 1191,
      "his": 1192,
      "mıyor": 1193,
      "işe": 1194,
      "kocak": 1195,
      "mutsuz": 1196,
      "Marfa": 1197,
      "eçka": 1198,
      "Doğ": 1199,
      "Eğer": 1200,
      "Ha": 1201,
      "Hat": 1202,
      "Tam": 1203,
      "ileri": 1204,
      "oy": 1205,
      "sonu": 1206,
      "ıt": 1207,
      "erken": 1208,
      "lamaya": 1209,
      "kabul": 1210,
      "akıl": 1211,
      "tıp": 1212,
      "memişti": 1213,
      "herkes": 1214,
      "tümüyle": 1215,
      "duydu": 1216,
      "Benim": 1217,
      "meyi": 1218,
      "Hatta": 1219,
      "kek": 1220,
      "pe": 1221,
      "penc": 1222,
      "ro": 1223,
      "yin": 1224,
      "ers": 1225,
      "unut": 1226,
      "bakıyordu": 1227,
      "biliyorum": 1228,
      "iyice": 1229,
      "Aslında": 1230,
      "bin": 1231,
      "iti": 1232,
      "sü": 1233,
      "İki": 1234,
      "masa": 1235,
      "yalan": 1236,
      "mırıl": 1237,
      "karak": 1238,
      "duruyordu": 1239,
      "ciddi": 1240,
      "türlü": 1241,
      "mırıldan": 1242,
      "Bay": 1243,
      "Bili": 1244,
      "casına": 1245,
      "dınız": 1246,
      "evet": 1247,
      "hiş": 1248,
      "ancak": 1249,
      "birbir": 1250,
      "lacak": 1251,
      "ünüz": 1252,
      "bulu": 1253,
      "tutu": 1254,
      "ılmış": 1255,
      "üthiş": 1256,
      "olması": 1257,
      "Peters": 1258,
      "vur": 1259,
      "Allah": 1260,
      "burg": 1261,
      "Gerçek": 1262,
      "Petersburg": 1263,
      "us": 1264,
      "ğına": 1265,
      "tiri": 1266,
      "ayet": 1267,
      "yanında": 1268,
      "herhalde": 1269,
      "bundan": 1270,
      "yerde": 1271,
      "davranış": 1272,
      "rast": 1273,
      "soylu": 1274,
      "El": 1275,
      "nok": 1276,
      "yön": 1277,
      "arasında": 1278,
      "unç": 1279,
      "miyordu": 1280,
      "duğunu": 1281,
      "mayacak": 1282,
      "böylesine": 1283,
      "Amalya": 1284,
      "ağz": 1285,
      "konuşma": 1286,
      "Tanrı": 1287,
      "stelik": 1288,
      "biçimde": 1289,
      "Doğru": 1290,
      "Kim": 1291,
      "Yine": 1292,
      "vaş": 1293,
      "let": 1294,
      "duvar": 1295,
      "ondan": 1296,
      "bazı": 1297,
      "memiş": 1298,
      "raya": 1299,
      "elinde": 1300,
      "caba": 1301,
      "sanız": 1302,
      "larıyla": 1303,
      "iza": 1304,
      "anlaş": 1305,
      "oluyor": 1306,
      "geçti": 1307,
      "gerekti": 1308,
      "kapıyı": 1309,
      "sessiz": 1310,
      "iliş": 1311,
      "neredeyse": 1312,
      "De": 1313,
      "beri": 1314,
      "hız": 1315,
      "lum": 1316,
      "pa": 1317,
      "ölüm": 1318,
      "lerinden": 1319,
      "eyse": 1320,
      "bağış": 1321,
      "izin": 1322,
      "bilmek": 1323,
      "seniz": 1324,
      "kimse": 1325,
      "Yoksa": 1326,
      "Dün": 1327,
      "Le": 1328,
      "cen": 1329,
      "liyordu": 1330,
      "düz": 1331,
      "yanı": 1332,
      "lıklı": 1333,
      "çalı": 1334,
      "kadının": 1335,
      "yatnikov": 1336,
      "layıp": 1337,
      "öfk": 1338,
      "başlamıştı": 1339,
      "çabuk": 1340,
      "ate": 1341,
      "dok": 1342,
      "dört": 1343,
      "ski": 1344,
      "dem": 1345,
      "delik": 1346,
      "kişi": 1347,
      "tav": 1348,
      "anlam": 1349,
      "derin": 1350,
      "hepsi": 1351,
      "ilgili": 1352,
      "çevir": 1353,
      "bezyatnikov": 1354,
      "Lebezyatnikov": 1355,
      "Bana": 1356,
      "ele": 1357,
      "yü": 1358,
      "eyim": 1359,
      "mıyorum": 1360,
      "ceğ": 1361,
      "verir": 1362,
      "değilse": 1363,
      "mıştım": 1364,
      "girdi": 1365,
      "söylen": 1366,
      "ederim": 1367,
      "Bel": 1368,
      "gür": 1369,
      "mer": 1370,
      "solu": 1371,
      "uç": 1372,
      "yara": 1373,
      "ıyorum": 1374,
      "bii": 1375,
      "lam": 1376,
      "olmak": 1377,
      "onları": 1378,
      "bağ": 1379,
      "ılmaz": 1380,
      "alçak": 1381,
      "gelen": 1382,
      "düşünü": 1383,
      "konuda": 1384,
      "kızın": 1385,
      "bilirdi": 1386,
      "boş": 1387,
      "yakın": 1388,
      "meyhan": 1389,
      "hangi": 1390,
      "devam": 1391,
      "gönder": 1392,
      "Nik": 1393,
      "öp": 1394,
      "mamış": 1395,
      "masına": 1396,
      "ünün": 1397,
      "balık": 1398,
      "raf": 1399,
      "koşu": 1400,
      "oturdu": 1401,
      "dikkatle": 1402,
      "Ar": 1403,
      "sarı": 1404,
      "ınca": 1405,
      "onlara": 1406,
      "kili": 1407,
      "mıyordu": 1408,
      "danın": 1409,
      "muz": 1410,
      "temiz": 1411,
      "işin": 1412,
      "mekte": 1413,
      "kendisinin": 1414,
      "sonunda": 1415,
      "yapar": 1416,
      "tüm": 1417,
      "laştı": 1418,
      "Gerçekten": 1419,
      "Kız": 1420,
      "ard": 1421,
      "yatı": 1422,
      "veta": 1423,
      "inize": 1424,
      "gelmiş": 1425,
      "yaptı": 1426,
      "bulunduğu": 1427,
      "Hemen": 1428,
      "bizim": 1429,
      "Liza": 1430,
      "cük": 1431,
      "dile": 1432,
      "mah": 1433,
      "eki": 1434,
      "asından": 1435,
      "cesar": 1436,
      "başına": 1437,
      "leriyle": 1438,
      "bilirim": 1439,
      "korkunç": 1440,
      "Lizaveta": 1441,
      "alay": 1442,
      "şöyle": 1443,
      "art": 1444,
      "eyle": 1445,
      "lıp": 1446,
      "bal": 1447,
      "sesi": 1448,
      "başında": 1449,
      "lana": 1450,
      "bunların": 1451,
      "larınız": 1452,
      "Duneçka": 1453,
      "sert": 1454,
      "cağız": 1455,
      "cinayet": 1456,
      "sahibi": 1457,
      "mırıldandı": 1458,
      "rar": 1459,
      "sel": 1460,
      "İç": 1461,
      "malı": 1462,
      "yorlardı": 1463,
      "hayat": 1464,
      "etki": 1465,
      "luğ": 1466,
      "araba": 1467,
      "bulunu": 1468,
      "kapının": 1469,
      "sözlerini": 1470,
      "yüzünü": 1471,
      "arkada": 1472,
      "cesaret": 1473,
      "eli": 1474,
      "müthiş": 1475,
      "şar": 1476,
      "yas": 1477,
      "sem": 1478,
      "ikinci": 1479,
      "kuru": 1480,
      "vere": 1481,
      "şap": 1482,
      "söyledi": 1483,
      "sözleri": 1484,
      "olmayan": 1485,
      "sorun": 1486,
      "ayrı": 1487,
      "dışarı": 1488,
      "Ba": 1489,
      "Hep": 1490,
      "Kar": 1491,
      "Mik": 1492,
      "dunuz": 1493,
      "falan": 1494,
      "iyordu": 1495,
      "uyan": 1496,
      "yum": 1497,
      "anlık": 1498,
      "yata": 1499,
      "başı": 1500,
      "karış": 1501,
      "irmi": 1502,
      "söylemek": 1503,
      "yerine": 1504,
      "insanın": 1505,
      "insanlar": 1506,
      "ih": 1507,
      "kov": 1508,
      "leni": 1509,
      "öteki": 1510,
      "mediği": 1511,
      "karşılık": 1512,
      "yazı": 1513,
      "uygun": 1514,
      "sinirli": 1515,
      "Kapı": 1516,
      "nokta": 1517,
      "Belki": 1518,
      "iyor": 1519,
      "pan": 1520,
      "misiniz": 1521,
      "sabah": 1522,
      "etmiş": 1523,
      "manız": 1524,
      "şıyordu": 1525,
      "bileceğini": 1526,
      "evde": 1527,
      "çekti": 1528,
      "sözünü": 1529,
      "lendir": 1530,
      "bulunan": 1531,
      "sıkı": 1532,
      "toplum": 1533,
      "dalgın": 1534,
      "atıl": 1535,
      "ateş": 1536,
      "Adam": 1537,
      "bor": 1538,
      "yen": 1539,
      "mayın": 1540,
      "undan": 1541,
      "gider": 1542,
      "yev": 1543,
      "gülü": 1544,
      "yargı": 1545,
      "layarak": 1546,
      "Onun": 1547,
      "daire": 1548,
      "şapka": 1549,
      "Ak": 1550,
      "Sa": 1551,
      "ut": 1552,
      "ğe": 1553,
      "inle": 1554,
      "yavaş": 1555,
      "katı": 1556,
      "içine": 1557,
      "yanına": 1558,
      "mektup": 1559,
      "böylece": 1560,
      "adamı": 1561,
      "lenme": 1562,
      "doğruca": 1563,
      "ereden": 1564,
      "ayrıntı": 1565,
      "Pol": 1566,
      "Yüz": 1567,
      "bı": 1568,
      "naz": 1569,
      "per": 1570,
      "ze": 1571,
      "ğan": 1572,
      "lamak": 1573,
      "lığa": 1574,
      "asını": 1575,
      "şeyin": 1576,
      "caktı": 1577,
      "dolayı": 1578,
      "lantı": 1579,
      "anlaya": 1580,
      "yüzüne": 1581,
      "Size": 1582,
      "dünya": 1583,
      "hakk": 1584,
      "bakalım": 1585,
      "sustu": 1586,
      "cik": 1587,
      "ren": 1588,
      "diri": 1589,
      "bire": 1590,
      "dum": 1591,
      "meli": 1592,
      "mesini": 1593,
      "düğ": 1594,
      "telaş": 1595,
      "işle": 1596,
      "manın": 1597,
      "görünü": 1598,
      "rica": 1599,
      "ükür": 1600,
      "duran": 1601,
      "sürdür": 1602,
      "nedeni": 1603,
      "mutlu": 1604,
      "zorunda": 1605,
      "hayır": 1606,
      "oldukça": 1607,
      "Bunu": 1608,
      "Beni": 1609,
      "Peki": 1610,
      "çöz": 1611,
      "ök": 1612,
      "madığı": 1613,
      "lad": 1614,
      "dudak": 1615,
      "kav": 1616,
      "siyle": 1617,
      "mekten": 1618,
      "landı": 1619,
      "gözleri": 1620,
      "yoksul": 1621,
      "yarı": 1622,
      "yarar": 1623,
      "karşısında": 1624,
      "hele": 1625,
      "geliş": 1626,
      "meyle": 1627,
      "Ancak": 1628,
      "Düş": 1629,
      "En": 1630,
      "Ev": 1631,
      "Ku": 1632,
      "fe": 1633,
      "vü": 1634,
      "yirmi": 1635,
      "anın": 1636,
      "demin": 1637,
      "yaka": 1638,
      "larım": 1639,
      "melad": 1640,
      "ruh": 1641,
      "bileceği": 1642,
      "kaldı": 1643,
      "durumu": 1644,
      "olmaz": 1645,
      "yüksek": 1646,
      "adamın": 1647,
      "sayık": 1648,
      "kardeşim": 1649,
      "ğuk": 1650,
      "istiyor": 1651,
      "titr": 1652,
      "Marmelad": 1653,
      "benzer": 1654,
      "şarkı": 1655,
      "Marmeladov": 1656,
      ",”": 1657,
      "Bil": 1658,
      "Göz": 1659,
      "Gör": 1660,
      "Hah": 1661,
      "Söyle": 1662,
      "Ta": 1663,
      "bey": 1664,
      "ez": 1665,
      "ira": 1666,
      "nin": 1667,
      "pol": 1668,
      "arım": 1669,
      "masını": 1670,
      "lamış": 1671,
      "bazen": 1672,
      "hayal": 1673,
      "tur": 1674,
      "aydın": 1675,
      "Bugün": 1676,
      "yerek": 1677,
      "boz": 1678,
      "saydı": 1679,
      "Kend": 1680,
      "ştur": 1681,
      "boyunca": 1682,
      "çay": 1683,
      "eydi": 1684,
      "sayı": 1685,
      "etmeye": 1686,
      "kendimi": 1687,
      "gelmişti": 1688,
      "anlatı": 1689,
      "koy": 1690,
      "koca": 1691,
      "olmadığını": 1692,
      "parayı": 1693,
      "kırmızı": 1694,
      "olursa": 1695,
      "epey": 1696,
      "İnsan": 1697,
      "şekil": 1698,
      "tavır": 1699,
      "Baş": 1700,
      "Yani": 1701,
      "acaba": 1702,
      "fıs": 1703,
      "pis": 1704,
      "uk": 1705,
      "öte": 1706,
      "lat": 1707,
      "layan": 1708,
      "bam": 1709,
      "til": 1710,
      "alın": 1711,
      "karş": 1712,
      "çıkıp": 1713,
      "cığım": 1714,
      "yerinden": 1715,
      "sorgu": 1716,
      "gerekli": 1717,
      "kaçır": 1718,
      "nedenle": 1719,
      "bize": 1720,
      "gelecek": 1721,
      "atıldı": 1722,
      "şekilde": 1723,
      "Ma": 1724,
      "Neyse": 1725,
      "sol": 1726,
      "zan": 1727,
      "Öte": 1728,
      "ardı": 1729,
      "deh": 1730,
      "yaşa": 1731,
      "giy": 1732,
      "yeti": 1733,
      "verdiği": 1734,
      "lanmış": 1735,
      "bakın": 1736,
      "yip": 1737,
      "yapı": 1738,
      "hatırladı": 1739,
      "gülümsey": 1740,
      "Semyonoviç": 1741,
      "öfke": 1742,
      "gidip": 1743,
      "titre": 1744,
      "rahatsız": 1745,
      "Biz": 1746,
      "odanın": 1747,
      "rak": 1748,
      "üyor": 1749,
      "arının": 1750,
      "onlar": 1751,
      "onların": 1752,
      "elbi": 1753,
      "öylece": 1754,
      "almış": 1755,
      "olanak": 1756,
      "kapıya": 1757,
      "dönüp": 1758,
      "odaya": 1759,
      "tersine": 1760,
      "kanıt": 1761,
      "Andr": 1762,
      "merdivenlerden": 1763,
      "ziyar": 1764,
      "itiraf": 1765,
      "arkadaş": 1766,
      "Andrey": 1767,
      "cası": 1768,
      "tin": 1769,
      "uc": 1770,
      "anı": 1771,
      "ora": 1772,
      "olka": 1773,
      "ekledi": 1774,
      "kimi": 1775,
      "bay": 1776,
      "ellerini": 1777,
      "nef": 1778,
      "neğin": 1779,
      "karanlık": 1780,
      "benden": 1781,
      "geldim": 1782,
      "ilen": 1783,
      "anlaşı": 1784,
      "konusun": 1785,
      "kop": 1786,
      "kızı": 1787,
      "laştır": 1788,
      "kapıcı": 1789,
      "açıkça": 1790,
      "geliyordu": 1791,
      "birdenbire": 1792,
      "ettiği": 1793,
      "dürüst": 1794,
      "ayrıl": 1795,
      "lığın": 1796,
      "yürüdü": 1797,
      "ortada": 1798,
      "lükle": 1799,
      "akıllı": 1800,
      "Mikolka": 1801,
      "fısıl": 1802,
      "Bunun": 1803,
      "Ner": 1804,
      "aile": 1805,
      "avu": 1806,
      "dun": 1807,
      "eve": 1808,
      "ldi": 1809,
      "engel": 1810,
      "daya": 1811,
      "kaba": 1812,
      "liyor": 1813,
      "akşam": 1814,
      "kiş": 1815,
      "medim": 1816,
      "sizden": 1817,
      "mektu": 1818,
      "vermiş": 1819,
      "vermişti": 1820,
      "değilim": 1821,
      "bakarak": 1822,
      "evine": 1823,
      "geçmiş": 1824,
      "ediyordu": 1825,
      "üstü": 1826,
      "Hiçbir": 1827,
      "delil": 1828,
      "tiksin": 1829,
      "kahka": 1830,
      "sokak": 1831,
      "Biliyor": 1832,
      "Kad": 1833,
      "vap": 1834,
      "ışı": 1835,
      "diyordu": 1836,
      "dura": 1837,
      "eket": 1838,
      "sam": 1839,
      "memur": 1840,
      "dost": 1841,
      "bilin": 1842,
      "bildiğ": 1843,
      "konusu": 1844,
      "duyul": 1845,
      "yürekli": 1846,
      "Sizi": 1847,
      "söyler": 1848,
      "kardeşi": 1849,
      "layın": 1850,
      "kuşkusuz": 1851,
      "titri": 1852,
      "sıralar": 1853,
      "kalktı": 1854,
      "haﬁfçe": 1855,
      "kahkaha": 1856,
      "Az": 1857,
      "Aman": 1858,
      "Ka": 1859,
      "ale": 1860,
      "deki": 1861,
      "laşı": 1862,
      "kita": 1863,
      "rum": 1864,
      "ürkek": 1865,
      "sanırım": 1866,
      "allı": 1867,
      "lur": 1868,
      "olabilir": 1869,
      "beyaz": 1870,
      "apaçık": 1871,
      "tekrar": 1872,
      "meyen": 1873,
      "soğuk": 1874,
      "canım": 1875,
      "meniz": 1876,
      "kurtu": 1877,
      "lığına": 1878,
      "sevinç": 1879,
      "Sanki": 1880,
      "nefret": 1881,
      "kün": 1882,
      "rü": 1883,
      "umutsuz": 1884,
      "yr": 1885,
      "ölü": 1886,
      "ene": 1887,
      "madım": 1888,
      "akın": 1889,
      "lıyorum": 1890,
      "kira": 1891,
      "hava": 1892,
      "ceb": 1893,
      "sever": 1894,
      "teh": 1895,
      "yeme": 1896,
      "üzün": 1897,
      "yanlış": 1898,
      "verin": 1899,
      "dolaş": 1900,
      "evlen": 1901,
      "Burada": 1902,
      "söyledik": 1903,
      "ladığı": 1904,
      "yarın": 1905,
      "mezdi": 1906,
      "parça": 1907,
      "istiyorum": 1908,
      "Onu": 1909,
      "kesinlikle": 1910,
      "aklına": 1911,
      "kocakarı": 1912,
      "sürdürdü": 1913,
      "Do": 1914,
      "Niçin": 1915,
      "Po": 1916,
      "bet": 1917,
      "edin": 1918,
      "hi": 1919,
      "kem": 1920,
      "ldu": 1921,
      "tor": 1922,
      "öv": 1923,
      "şır": 1924,
      "bitir": 1925,
      "liba": 1926,
      "leriniz": 1927,
      "eyen": 1928,
      "düzen": 1929,
      "ılmıştı": 1930,
      "kendim": 1931,
      "sonsuz": 1932,
      "lıktan": 1933,
      "lanmıştı": 1934,
      "sıyla": 1935,
      "kıv": 1936,
      "odada": 1937,
      "çıkardı": 1938,
      "yeter": 1939,
      "aşağılık": 1940,
      "suçlu": 1941,
      "Dur": 1942,
      "sokağa": 1943,
      "hisse": 1944,
      "hızla": 1945,
      "coş": 1946,
      "lmiş": 1947,
      "rken": 1948,
      "yık": 1949,
      "zayı": 1950,
      "İl": 1951,
      "üncü": 1952,
      "haber": 1953,
      "mesine": 1954,
      "cevap": 1955,
      "tat": 1956,
      "taşı": 1957,
      "göğ": 1958,
      "altı": 1959,
      "kul": 1960,
      "ımdan": 1961,
      "sto": 1962,
      "güven": 1963,
      "kalkıp": 1964,
      "ışık": 1965,
      "duyduğu": 1966,
      "olmasına": 1967,
      "Neden": 1968,
      "karşılaş": 1969,
      "ınızı": 1970,
      "istedi": 1971,
      "giriş": 1972,
      "gösterdi": 1973,
      "gizle": 1974,
      "görünce": 1975,
      "çığ": 1976,
      "Nikolay": 1977,
      "Kor": 1978,
      "ace": 1979,
      "ağa": 1980,
      "fak": 1981,
      "kür": 1982,
      "kten": 1983,
      "çü": 1984,
      "üstelik": 1985,
      "ğında": 1986,
      "dil": 1987,
      "birinin": 1988,
      "larak": 1989,
      "kir": 1990,
      "baya": 1991,
      "sat": 1992,
      "yemek": 1993,
      "ruk": 1994,
      "sandal": 1995,
      "olamaz": 1996,
      "böylesi": 1997,
      "unuzu": 1998,
      "onunla": 1999,
      "ciğim": 2000,
      "meyin": 2001,
      "ediyorum": 2002,
      "aşır": 2003,
      "ğrenç": 2004,
      "menin": 2005,
      "sevgi": 2006,
      "vuru": 2007,
      "şit": 2008,
      "gördüm": 2009,
      "fendi": 2010,
      "hareket": 2011,
      "sakin": 2012,
      "balta": 2013,
      "gülümseyerek": 2014,
      "ziyaret": 2015,
      "So": 2016,
      "Yar": 2017,
      "alış": 2018,
      "sunu": 2019,
      "seye": 2020,
      "tara": 2021,
      "çın": 2022,
      "ücük": 2023,
      "ğine": 2024,
      "biten": 2025,
      "dağı": 2026,
      "madığını": 2027,
      "lamıştı": 2028,
      "kak": 2029,
      "kaş": 2030,
      "bula": 2031,
      "mıl": 2032,
      "satı": 2033,
      "ımda": 2034,
      "ist": 2035,
      "vardır": 2036,
      "herkesin": 2037,
      "gerçe": 2038,
      "biliyordu": 2039,
      "ceki": 2040,
      "duruyor": 2041,
      "olmadığı": 2042,
      "içindeydi": 2043,
      "yukarı": 2044,
      "açtı": 2045,
      "genel": 2046,
      "öğrenci": 2047,
      "layacak": 2048,
      "lığıyla": 2049,
      "Böylece": 2050,
      "tuttu": 2051,
      "kaldırdı": 2052,
      "liğinden": 2053,
      "kocakarının": 2054,
      "öfkeyle": 2055,
      "delikanlı": 2056,
      "tavırla": 2057,
      "Gi": 2058,
      "eden": 2059,
      "iye": 2060,
      "jik": 2061,
      "tiniz": 2062,
      "çka": 2063,
      "diz": 2064,
      "masan": 2065,
      "ortas": 2066,
      "kazan": 2067,
      "içki": 2068,
      "lıydı": 2069,
      "amak": 2070,
      "amaya": 2071,
      "herke": 2072,
      "evk": 2073,
      "evli": 2074,
      "adama": 2075,
      "sözü": 2076,
      "koştu": 2077,
      "bıraktı": 2078,
      "kendisiyle": 2079,
      "eşya": 2080,
      "güçlükle": 2081,
      "söylüyorum": 2082,
      "borç": 2083,
      "polis": 2084,
      "karşın": 2085,
      "masanın": 2086,
      "Sor": 2087,
      "gır": 2088,
      "hen": 2089,
      "iğrenç": 2090,
      "çasına": 2091,
      "ştır": 2092,
      "anım": 2093,
      "dek": 2094,
      "mas": 2095,
      "mayan": 2096,
      "dua": 2097,
      "kalır": 2098,
      "içten": 2099,
      "tabii": 2100,
      "ayım": 2101,
      "versi": 2102,
      "düşünc": 2103,
      "evi": 2104,
      "Buraya": 2105,
      "yaptığı": 2106,
      "yerinde": 2107,
      "kalmış": 2108,
      "yüzünden": 2109,
      "kısa": 2110,
      "kendinden": 2111,
      "dikleri": 2112,
      "gitmek": 2113,
      "dığım": 2114,
      "dönerek": 2115,
      "odasına": 2116,
      "açı": 2117,
      "yüreğ": 2118,
      "Demin": 2119,
      "güçlü": 2120,
      "niyet": 2121,
      "pencere": 2122,
      "rastlantı": 2123,
      "Doğrusu": 2124,
      "Madem": 2125,
      "alev": 2126,
      "Geç": 2127,
      "Kı": 2128,
      "niş": 2129,
      "uza": 2130,
      "Ön": 2131,
      "Üstelik": 2132,
      "şede": 2133,
      "kavu": 2134,
      "miydi": 2135,
      "hali": 2136,
      "sabır": 2137,
      "elen": 2138,
      "ete": 2139,
      "seve": 2140,
      "aldır": 2141,
      "önüne": 2142,
      "izle": 2143,
      "ilmiş": 2144,
      "evinde": 2145,
      "bilgi": 2146,
      "olduğuna": 2147,
      "meyecek": 2148,
      "kımıl": 2149,
      "sızlık": 2150,
      "gerekir": 2151,
      "açıklama": 2152,
      "benimle": 2153,
      "hani": 2154,
      "inanç": 2155,
      "olurdu": 2156,
      "haklı": 2157,
      "gülümsedi": 2158,
      "kâğıt": 2159,
      "hiss": 2160,
      "tıpkı": 2161,
      "Delik": 2162,
      "vücu": 2163,
      "tiksinti": 2164,
      "çığlık": 2165,
      "Konu": 2166,
      "Oda": 2167,
      "Yeni": 2168,
      "acak": 2169,
      "hu": 2170,
      "hmet": 2171,
      "kû": 2172,
      "oysa": 2173,
      "Üç": 2174,
      "çal": 2175,
      "çile": 2176,
      "İlya": 2177,
      "lerek": 2178,
      "miy": 2179,
      "mıydı": 2180,
      "geve": 2181,
      "önceki": 2182,
      "bildiği": 2183,
      "yeri": 2184,
      "ders": 2185,
      "koyu": 2186,
      "yüzünde": 2187,
      "koru": 2188,
      "boya": 2189,
      "bulunduğunu": 2190,
      "ediyor": 2191,
      "ölçü": 2192,
      "uyku": 2193,
      "banın": 2194,
      "ültü": 2195,
      "gizli": 2196,
      "söylüyor": 2197,
      "değiştir": 2198,
      "soluk": 2199,
      "bağlı": 2200,
      "kilit": 2201,
      "konusunda": 2202,
      "üzüntü": 2203,
      "acele": 2204,
      "versite": 2205,
      "Has": 2206,
      "Mit": 2207,
      "Zaten": 2208,
      "tınız": 2209,
      "zin": 2210,
      "zevk": 2211,
      "çir": 2212,
      "çiz": 2213,
      "öne": 2214,
      "annem": 2215,
      "kale": 2216,
      "onda": 2217,
      "üni": 2218,
      "tıl": 2219,
      "mit": 2220,
      "hav": 2221,
      "ırıl": 2222,
      "rat": 2223,
      "şeyden": 2224,
      "kendime": 2225,
      "yıp": 2226,
      "lanıyor": 2227,
      "tane": 2228,
      "bakıyor": 2229,
      "değildir": 2230,
      "olağan": 2231,
      "yerlere": 2232,
      "ıştır": 2233,
      "bilirsiniz": 2234,
      "kıs": 2235,
      "uzan": 2236,
      "ınıza": 2237,
      "nedense": 2238,
      "Anne": 2239,
      "bunlardan": 2240,
      "altına": 2241,
      "diğiniz": 2242,
      "bakışlarla": 2243,
      "kesik": 2244,
      "İnan": 2245,
      "Gerçi": 2246,
      "dayanama": 2247,
      "gülümsemeyle": 2248,
      "gülün": 2249,
      "Kocak": 2250,
      "galiba": 2251,
      "sonuç": 2252,
      "masaya": 2253,
      "gürültü": 2254,
      "merak": 2255,
      "Artık": 2256,
      "ihti": 2257,
      "Kadın": 2258,
      "Sana": 2259,
      "dar": 2260,
      "eti": 2261,
      "kına": 2262,
      "nereden": 2263,
      "omi": 2264,
      "paz": 2265,
      "sok": 2266,
      "usul": 2267,
      "öğ": 2268,
      "üyordu": 2269,
      "indir": 2270,
      "diki": 2271,
      "yağ": 2272,
      "yaban": 2273,
      "kalan": 2274,
      "asının": 2275,
      "giri": 2276,
      "düm": 2277,
      "tuğ": 2278,
      "rur": 2279,
      "mışlar": 2280,
      "vermek": 2281,
      "lüt": 2282,
      "kadına": 2283,
      "yitir": 2284,
      "kalmıştı": 2285,
      "sözler": 2286,
      "bes": 2287,
      "kıza": 2288,
      "yarım": 2289,
      "üzere": 2290,
      "gitmiş": 2291,
      "gitgide": 2292,
      "hesap": 2293,
      "Sizin": 2294,
      "Herhalde": 2295,
      "ortaya": 2296,
      "şaşırt": 2297,
      "Öyleyse": 2298,
      "cağımı": 2299,
      "ayakta": 2300,
      "şaşkınlık": 2301,
      "anlaşılan": 2302,
      "ardından": 2303,
      "toplumsal": 2304,
      "görünüş": 2305,
      "Tabii": 2306,
      "olanaksız": 2307,
      "aşırı": 2308,
      "Dmit": 2309,
      "Hay": 2310,
      "Hele": 2311,
      "bür": 2312,
      "hiz": 2313,
      "koku": 2314,
      "mkün": 2315,
      "pal": 2316,
      "yır": 2317,
      "zel": 2318,
      "Çocuk": 2319,
      "ıyorsunuz": 2320,
      "şunu": 2321,
      "şiş": 2322,
      "leye": 2323,
      "tış": 2324,
      "lığını": 2325,
      "rahmet": 2326,
      "yedi": 2327,
      "kara": 2328,
      "manı": 2329,
      "herhangi": 2330,
      "makla": 2331,
      "oluyordu": 2332,
      "bildir": 2333,
      "yerleş": 2334,
      "küs": 2335,
      "kopek": 2336,
      "mümkün": 2337,
      "sızlıkla": 2338,
      "köy": 2339,
      "kimsey": 2340,
      "mizi": 2341,
      "hafta": 2342,
      "Alman": 2343,
      "anlıyorum": 2344,
      "gördüğ": 2345,
      "anneciğim": 2346,
      "aptalca": 2347,
      "taşın": 2348,
      "gerektiğini": 2349,
      "çözüm": 2350,
      "dehş": 2351,
      "elbise": 2352,
      "kitap": 2353,
      "bayağı": 2354,
      "ortasında": 2355,
      "Delikanlı": 2356,
      "geveze": 2357,
      "olağanüstü": 2358,
      "gülünç": 2359,
      "Dmitri": 2360,
      "),": 2361,
      "Ara": 2362,
      "Bira": 2363,
      "Suç": 2364,
      "Tü": 2365,
      "aka": 2366,
      "alıp": 2367,
      "bası": 2368,
      "ch": 2369,
      "eme": 2370,
      "hö": 2371,
      "kon": 2372,
      "kolay": 2373,
      "lunun": 2374,
      "mle": 2375,
      "pro": 2376,
      "yken": 2377,
      "yolu": 2378,
      "öde": 2379,
      "mal": 2380,
      "leçka": 2381,
      "lerce": 2382,
      "misin": 2383,
      "tum": 2384,
      "selam": 2385,
      "mus": 2386,
      "içinden": 2387,
      "ayla": 2388,
      "ayıp": 2389,
      "emli": 2390,
      "görmüş": 2391,
      "verdim": 2392,
      "iskem": 2393,
      "çıkarı": 2394,
      "söyledim": 2395,
      "gücü": 2396,
      "anah": 2397,
      "buldu": 2398,
      "kapan": 2399,
      "gözyaş": 2400,
      "kom": 2401,
      "durup": 2402,
      "olmadı": 2403,
      "kapısı": 2404,
      "ğrı": 2405,
      "odadan": 2406,
      "köşede": 2407,
      "ettim": 2408,
      "olduğumu": 2409,
      "görül": 2410,
      "küçücük": 2411,
      "gidelim": 2412,
      "kalabalık": 2413,
      "liğe": 2414,
      "söylendi": 2415,
      "bambaşka": 2416,
      "tehli": 2417,
      "Poleçka": 2418,
      "Kısa": 2419,
      "kûm": 2420,
      "üniversite": 2421,
      "Baz": 2422,
      "ata": 2423,
      "canla": 2424,
      "gar": 2425,
      "ho": 2426,
      "kun": 2427,
      "lmuş": 2428,
      "nö": 2429,
      "çor": 2430,
      "ann": 2431,
      "maları": 2432,
      "yacak": 2433,
      "buç": 2434,
      "sikol": 2435,
      "sav": 2436,
      "sez": 2437,
      "seç": 2438,
      "mışlardı": 2439,
      "kucak": 2440,
      "emeye": 2441,
      "amaşır": 2442,
      "istek": 2443,
      "kendisinden": 2444,
      "dos": 2445,
      "çaba": 2446,
      "lanan": 2447,
      "landır": 2448,
      "bakmaya": 2449,
      "düşüne": 2450,
      "ilgin": 2451,
      "söylemeden": 2452,
      "meyeceğim": 2453,
      "geçip": 2454,
      "res": 2455,
      "sürü": 2456,
      "geliyor": 2457,
      "muştum": 2458,
      "gösteri": 2459,
      "gerçekleş": 2460,
      "sizinle": 2461,
      "gidecek": 2462,
      "nereye": 2463,
      "haykır": 2464,
      "fendim": 2465,
      "sekiz": 2466,
      "çıka": 2467,
      "konuşuyordu": 2468,
      "şaşkınlıkla": 2469,
      "pencer": 2470,
      "ilişkin": 2471,
      "çalışıyordu": 2472,
      "doktor": 2473,
      "göğs": 2474,
      "Hasta": 2475,
      "Biraz": 2476,
      "sikolo": 2477,
      "II": 2478,
      "Küç": 2479,
      "Tu": 2480,
      "Yür": 2481,
      "adı": 2482,
      "bölüm": 2483,
      "ft": 2484,
      "kları": 2485,
      "peş": 2486,
      "tın": 2487,
      "umu": 2488,
      "vaz": 2489,
      "yarak": 2490,
      "yeyim": 2491,
      "çıl": 2492,
      "ğının": 2493,
      "arken": 2494,
      "oraya": 2495,
      "kafa": 2496,
      "katil": 2497,
      "olmaya": 2498,
      "eyerek": 2499,
      "içi": 2500,
      "tiği": 2501,
      "ırdı": 2502,
      "meleri": 2503,
      "sevi": 2504,
      "tedir": 2505,
      "işini": 2506,
      "görür": 2507,
      "larımı": 2508,
      "veren": 2509,
      "tanın": 2510,
      "tanık": 2511,
      "şaşı": 2512,
      "anlamı": 2513,
      "anlata": 2514,
      "olacağını": 2515,
      "söylemiş": 2516,
      "söylemişti": 2517,
      "bilmiyorum": 2518,
      "yerden": 2519,
      "söze": 2520,
      "gözüm": 2521,
      "gereken": 2522,
      "yur": 2523,
      "otuz": 2524,
      "köp": 2525,
      "hepsini": 2526,
      "düşünceler": 2527,
      "bekli": 2528,
      "kurnaz": 2529,
      "geniş": 2530,
      "kararlı": 2531,
      "üçüncü": 2532,
      "çocukları": 2533,
      "sahip": 2534,
      "boyn": 2535,
      "çalışarak": 2536,
      "veriyor": 2537,
      "çabucak": 2538,
      "ağzından": 2539,
      "sanıza": 2540,
      "ilişki": 2541,
      "yüce": 2542,
      "yevski": 2543,
      "kavga": 2544,
      "anlaşılıyordu": 2545,
      "titriyordu": 2546,
      "Dosto": 2547,
      "kullan": 2548,
      "palto": 2549,
      "ilginç": 2550,
      "Dostoyevski": 2551,
      "Bır": 2552,
      "Ki": 2553,
      "Kaldı": 2554,
      "Kala": 2555,
      "Mer": 2556,
      "cının": 2557,
      "dol": 2558,
      "psikolo": 2559,
      "rok": 2560,
      "ymış": 2561,
      "aret": 2562,
      "dadı": 2563,
      "masının": 2564,
      "untu": 2565,
      "kam": 2566,
      "bayım": 2567,
      "mısınız": 2568,
      "cep": 2569,
      "eter": 2570,
      "etmişti": 2571,
      "kent": 2572,
      "getiri": 2573,
      "almak": 2574,
      "kula": 2575,
      "özür": 2576,
      "atarak": 2577,
      "kendiliğinden": 2578,
      "varsa": 2579,
      "çıkmıştı": 2580,
      "düştü": 2581,
      "tanış": 2582,
      "kadını": 2583,
      "sten": 2584,
      "yapıyor": 2585,
      "bilen": 2586,
      "gözlerle": 2587,
      "lenmiş": 2588,
      "diğimi": 2589,
      "zamandır": 2590,
      "rehin": 2591,
      "apaz": 2592,
      "olanca": 2593,
      "edecek": 2594,
      "İvanoviç": 2595,
      "mazdı": 2596,
      "sof": 2597,
      "kör": 2598,
      "canı": 2599,
      "canlı": 2600,
      "kimsenin": 2601,
      "hoşuna": 2602,
      "paraları": 2603,
      "bizi": 2604,
      "düşündüm": 2605,
      "arkasında": 2606,
      "kaygı": 2607,
      "içeride": 2608,
      "zengin": 2609,
      "kalaba": 2610,
      "heyecanla": 2611,
      "tahta": 2612,
      "tahmin": 2613,
      "kıpkırmızı": 2614,
      "ğınızı": 2615,
      "avlu": 2616,
      "çevresine": 2617,
      "sonucu": 2618,
      "hakkında": 2619,
      "zayıf": 2620,
      "sandalye": 2621,
      "dehşet": 2622,
      "Kısacası": 2623,
      "Am": 2624,
      "Merdiven": 2625,
      "Prok": 2626,
      "Yeter": 2627,
      "dor": 2628,
      "esi": 2629,
      "efendim": 2630,
      "nak": 2631,
      "oﬁ": 2632,
      "tarı": 2633,
      "yola": 2634,
      "çan": 2635,
      "çök": 2636,
      "şan": 2637,
      "şun": 2638,
      "şık": 2639,
      "diyor": 2640,
      "diyorum": 2641,
      "divan": 2642,
      "yaşam": 2643,
      "lecek": 2644,
      "kaye": 2645,
      "olsaydı": 2646,
      "tığını": 2647,
      "aslı": 2648,
      "haya": 2649,
      "düğü": 2650,
      "eline": 2651,
      "tesi": 2652,
      "neşe": 2653,
      "ürk": 2654,
      "başarı": 2655,
      "varmış": 2656,
      "çıkış": 2657,
      "namus": 2658,
      "luğu": 2659,
      "aralarında": 2660,
      "bilmi": 2661,
      "bilme": 2662,
      "gözden": 2663,
      "günü": 2664,
      "doğal": 2665,
      "duruma": 2666,
      "kendiniz": 2667,
      "yuvar": 2668,
      "sürük": 2669,
      "açıp": 2670,
      "ettiğini": 2671,
      "yüreği": 2672,
      "mızda": 2673,
      "ilgilen": 2674,
      "istiyordu": 2675,
      "hastalıklı": 2676,
      "döv": 2677,
      "kafasında": 2678,
      "kafasından": 2679,
      "dıkları": 2680,
      "sessizce": 2681,
      "meyhane": 2682,
      "koşul": 2683,
      "eliyle": 2684,
      "şapkasını": 2685,
      "sayıklama": 2686,
      "hikaye": 2687,
      "İlk": 2688,
      "Kocakarı": 2689,
      "lütfen": 2690,
      "Prokoﬁ": 2691,
      "Prokoﬁç": 2692,
      "Gel": 2693,
      "Ona": 2694,
      "Rus": 2695,
      "Söz": 2696,
      "Yan": 2697,
      "cım": 2698,
      "ilerle": 2699,
      "not": 2700,
      "sım": 2701,
      "tükür": 2702,
      "ucu": 2703,
      "zer": 2704,
      "çamaşır": 2705,
      "ğinde": 2706,
      "şere": 2707,
      "anl": 2708,
      "olun": 2709,
      "ünce": 2710,
      "mil": 2711,
      "aslında": 2712,
      "bacak": 2713,
      "veda": 2714,
      "tem": 2715,
      "şeyleri": 2716,
      "başlan": 2717,
      "amaz": 2718,
      "luyordu": 2719,
      "cılar": 2720,
      "bunda": 2721,
      "söylediği": 2722,
      "ster": 2723,
      "güc": 2724,
      "konuşa": 2725,
      "sözcük": 2726,
      "kül": 2727,
      "duyar": 2728,
      "bec": 2729,
      "yüzden": 2730,
      "kızcağız": 2731,
      "diklerini": 2732,
      "zamanı": 2733,
      "ikisi": 2734,
      "buradan": 2735,
      "yaklaş": 2736,
      "saydım": 2737,
      "acıma": 2738,
      "görülü": 2739,
      "göstere": 2740,
      "Herkes": 2741,
      "yaşında": 2742,
      "lukla": 2743,
      "arkasından": 2744,
      "kayb": 2745,
      "Kendisi": 2746,
      "duyuyordu": 2747,
      "geçirdi": 2748,
      "Yalnızca": 2749,
      "Sanırım": 2750,
      "Hadi": 2751,
      "karakol": 2752,
      "kocaman": 2753,
      "Nereye": 2754,
      "mektubu": 2755,
      "taraf": 2756,
      "nişanlı": 2757,
      "hizmet": 2758,
      "tedirgin": 2759,
      "Acaba": 2760,
      "Fomi": 2761,
      "Para": 2762,
      "Uz": 2763,
      "alır": 2764,
      "bık": 2765,
      "cdan": 2766,
      "elim": 2767,
      "fan": 2768,
      "fer": 2769,
      "for": 2770,
      "isi": 2771,
      "ktan": 2772,
      "lo": 2773,
      "odim": 2774,
      "rneğin": 2775,
      "ur": 2776,
      "ymiş": 2777,
      "Öl": 2778,
      "Örneğin": 2779,
      "ğen": 2780,
      "ğından": 2781,
      "arasından": 2782,
      "leme": 2783,
      "olmayacak": 2784,
      "mir": 2785,
      "saf": 2786,
      "tutup": 2787,
      "muyordu": 2788,
      "imde": 2789,
      "aldığı": 2790,
      "kulak": 2791,
      "işleri": 2792,
      "amaç": 2793,
      "sizce": 2794,
      "görmek": 2795,
      "attığı": 2796,
      "kendilerini": 2797,
      "kendilerine": 2798,
      "luluk": 2799,
      "bileceğ": 2800,
      "dedim": 2801,
      "bunca": 2802,
      "çekip": 2803,
      "kalsın": 2804,
      "olmadan": 2805,
      "insanların": 2806,
      "zamanda": 2807,
      "sürekli": 2808,
      "gitmişti": 2809,
      "sırt": 2810,
      "istediğim": 2811,
      "yakında": 2812,
      "önceden": 2813,
      "köşe": 2814,
      "hane": 2815,
      "gurur": 2816,
      "konuşmaya": 2817,
      "kurtar": 2818,
      "kuşkulu": 2819,
      "bakışları": 2820,
      "bastır": 2821,
      "yürümeye": 2822,
      "anlattı": 2823,
      "verici": 2824,
      "dayanılmaz": 2825,
      "Bakın": 2826,
      "karakola": 2827,
      "yaratık": 2828,
      "Nikodim": 2829,
      "ardına": 2830,
      "mahkûm": 2831,
      "yumruk": 2832,
      "pansi": 2833,
      "ateşli": 2834,
      "düğünü": 2835,
      "Başka": 2836,
      "çıngır": 2837,
      "rahmetli": 2838,
      "Kalabalık": 2839,
      "sımsıkı": 2840,
      "başlangı": 2841,
      "Fomiç": 2842,
      "Bü": 2843,
      "Saç": 2844,
      "Yalan": 2845,
      "dde": 2846,
      "hır": 2847,
      "çocu": 2848,
      "üyle": 2849,
      "anlıyor": 2850,
      "birini": 2851,
      "malar": 2852,
      "mamak": 2853,
      "mik": 2854,
      "tiğini": 2855,
      "saba": 2856,
      "memek": 2857,
      "elinden": 2858,
      "kenar": 2859,
      "yemin": 2860,
      "rup": 2861,
      "şeydi": 2862,
      "kura": 2863,
      "emin": 2864,
      "vermedi": 2865,
      "lerimi": 2866,
      "inizin": 2867,
      "gelme": 2868,
      "söyleyeyim": 2869,
      "bilmem": 2870,
      "konuyu": 2871,
      "sorunu": 2872,
      "iyisi": 2873,
      "insanı": 2874,
      "apart": 2875,
      "uzattı": 2876,
      "boğ": 2877,
      "boğu": 2878,
      "istemiyorum": 2879,
      "ettiğim": 2880,
      "topar": 2881,
      "edip": 2882,
      "ağzı": 2883,
      "kimseye": 2884,
      "yolda": 2885,
      "korkuyla": 2886,
      "bank": 2887,
      "rublelik": 2888,
      "eğlen": 2889,
      "kesil": 2890,
      "retsin": 2891,
      "söylüyorsun": 2892,
      "isterseniz": 2893,
      "gülümseme": 2894,
      "kahretsin": 2895,
      "söyleyecek": 2896,
      "kâğıdı": 2897,
      "oyn": 2898,
      "roman": 2899,
      "Arka": 2900,
      "uyandır": 2901,
      "gülüş": 2902,
      "dudakları": 2903,
      "sorguya": 2904,
      "giysi": 2905,
      "duyuldu": 2906,
      "cebine": 2907,
      "Konuş": 2908,
      "çirkin": 2909,
      "besbelli": 2910,
      "küstah": 2911,
      "gevezelik": 2912,
      "Acı": 2913,
      "Ce": 2914,
      "Gen": 2915,
      "Han": 2916,
      "Hey": 2917,
      "Hım": 2918,
      "Kö": 2919,
      "Par": 2920,
      "Say": 2921,
      "Tek": 2922,
      "alı": 2923,
      "dünkü": 2924,
      "gılan": 2925,
      "ici": 2926,
      "piş": 2927,
      "veni": 2928,
      "vallı": 2929,
      "yona": 2930,
      "erna": 2931,
      "biti": 2932,
      "diy": 2933,
      "mama": 2934,
      "yatak": 2935,
      "asız": 2936,
      "giden": 2937,
      "cesine": 2938,
      "dans": 2939,
      "tuta": 2940,
      "mum": 2941,
      "tes": 2942,
      "tepe": 2943,
      "ayan": 2944,
      "kut": 2945,
      "yanından": 2946,
      "emekli": 2947,
      "manpaz": 2948,
      "dola": 2949,
      "izi": 2950,
      "lanır": 2951,
      "lanıyordu": 2952,
      "şıyor": 2953,
      "bakı": 2954,
      "düşünmüştü": 2955,
      "yapmış": 2956,
      "kalın": 2957,
      "zavallı": 2958,
      "yardı": 2959,
      "tıkları": 2960,
      "dikten": 2961,
      "durak": 2962,
      "durmuş": 2963,
      "kapıdan": 2964,
      "istemez": 2965,
      "hanım": 2966,
      "bıraka": 2967,
      "toz": 2968,
      "edil": 2969,
      "örneğin": 2970,
      "kardeşinin": 2971,
      "keserek": 2972,
      "dünüz": 2973,
      "ilgilendir": 2974,
      "küçüm": 2975,
      "hatırlıyor": 2976,
      "seydi": 2977,
      "yıldır": 2978,
      "hastalık": 2979,
      "tartış": 2980,
      "layıcı": 2981,
      "hayvan": 2982,
      "niye": 2983,
      "kaldırıp": 2984,
      "Öylesine": 2985,
      "oturup": 2986,
      "demektir": 2987,
      "yapacak": 2988,
      "Koh": 2989,
      "çevresinde": 2990,
      "Samanpaz": 2991,
      "lenmedik": 2992,
      "anlatımı": 2993,
      "öfkeden": 2994,
      "yrun": 2995,
      "herkese": 2996,
      "anımsa": 2997,
      "Geçen": 2998,
      "sevecen": 2999,
      "gücüyle": 3000,
      "anahtar": 3001,
      "buçuk": 3002,
      "Hangi": 3003,
      "Samanpazarı": 3004,
      "Dinle": 3005,
      "Eh": 3006,
      "Hani": 3007,
      "Seni": 3008,
      "Yaz": 3009,
      "cın": 3010,
      "oğu": 3011,
      "pyeni": 3012,
      "pırıl": 3013,
      "sün": 3014,
      "tası": 3015,
      "umut": 3016,
      "vra": 3017,
      "Çev": 3018,
      "ğiniz": 3019,
      "yasa": 3020,
      "liydi": 3021,
      "baba": 3022,
      "haç": 3023,
      "gömü": 3024,
      "dük": 3025,
      "elde": 3026,
      "teor": 3027,
      "yepyeni": 3028,
      "üzül": 3029,
      "almaya": 3030,
      "aze": 3031,
      "işler": 3032,
      "gören": 3033,
      "verecek": 3034,
      "atmak": 3035,
      "öner": 3036,
      "çıkan": 3037,
      "duğum": 3038,
      "bakımdan": 3039,
      "biliyorsunuz": 3040,
      "bunlara": 3041,
      "olası": 3042,
      "söyleyin": 3043,
      "konuk": 3044,
      "duymuş": 3045,
      "suna": 3046,
      "olmalı": 3047,
      "sene": 3048,
      "kori": 3049,
      "!..”": 3050,
      "durmadan": 3051,
      "sızın": 3052,
      "vicdan": 3053,
      "sesler": 3054,
      "yazar": 3055,
      "katlan": 3056,
      "ördün": 3057,
      "kırp": 3058,
      "düşüncesi": 3059,
      "bekliyordu": 3060,
      "çesine": 3061,
      "topu": 3062,
      "çift": 3063,
      "çocuklar": 3064,
      "burası": 3065,
      "gizlen": 3066,
      "gördüğü": 3067,
      "başlayan": 3068,
      "yoktur": 3069,
      "farkında": 3070,
      "veriyordu": 3071,
      "Kendisini": 3072,
      "harca": 3073,
      "aklıma": 3074,
      "Bundan": 3075,
      "paça": 3076,
      "öfkelen": 3077,
      "anlamsız": 3078,
      "düşünüyordu": 3079,
      "tümden": 3080,
      "İçeri": 3081,
      "Hepsi": 3082,
      "Kardeş": 3083,
      "renk": 3084,
      "Kuş": 3085,
      "alışkan": 3086,
      "gerçeği": 3087,
      "Önce": 3088,
      "Küçük": 3089,
      "anlının": 3090,
      "ördüncü": 3091,
      "18": 3092,
      "Bal": 3093,
      "Kan": 3094,
      "Lüt": 3095,
      "Nap": 3096,
      "Orada": 3097,
      "Sar": 3098,
      "Sır": 3099,
      "Zav": 3100,
      "bem": 3101,
      "ebilir": 3102,
      "eceğim": 3103,
      "kana": 3104,
      "kış": 3105,
      "nut": 3106,
      "rı": 3107,
      "rası": 3108,
      "sk": 3109,
      "uğr": 3110,
      "vana": 3111,
      "zar": 3112,
      "Özel": 3113,
      "Üzer": 3114,
      "öğr": 3115,
      "üye": 3116,
      "üste": 3117,
      "ıcı": 3118,
      "dat": 3119,
      "maması": 3120,
      "yatır": 3121,
      "onlardan": 3122,
      "liğin": 3123,
      "tıyordu": 3124,
      "lığım": 3125,
      "inim": 3126,
      "hadi": 3127,
      "hayatı": 3128,
      "şeytan": 3129,
      "ürken": 3130,
      "başlı": 3131,
      "sandı": 3132,
      "kolunu": 3133,
      "aziz": 3134,
      "azından": 3135,
      "umov": 3136,
      "görme": 3137,
      "susu": 3138,
      "özen": 3139,
      "çıkmış": 3140,
      "düşür": 3141,
      "diyecek": 3142,
      "geldiğini": 3143,
      "ille": 3144,
      "bildi": 3145,
      "çekil": 3146,
      "tüst": 3147,
      "gözü": 3148,
      "koş": 3149,
      "beğen": 3150,
      "yüzde": 3151,
      "geçerken": 3152,
      "iyilik": 3153,
      "üzerinden": 3154,
      "zamanlar": 3155,
      "sızca": 3156,
      "edebi": 3157,
      "adamdı": 3158,
      "döner": 3159,
      "parma": 3160,
      "ceğiz": 3161,
      "ceğimi": 3162,
      "oldum": 3163,
      "seslen": 3164,
      "büyü": 3165,
      "girer": 3166,
      "aşkına": 3167,
      "ağlamaya": 3168,
      "kanı": 3169,
      "birisi": 3170,
      "konuştu": 3171,
      "çıkarken": 3172,
      "oturduğu": 3173,
      "öğrendim": 3174,
      "diğinde": 3175,
      "seninle": 3176,
      "kaynak": 3177,
      "kaygılan": 3178,
      "burn": 3179,
      "göründü": 3180,
      "boylu": 3181,
      "sıradan": 3182,
      "bardak": 3183,
      "Kaperna": 3184,
      "utanç": 3185,
      "kelime": 3186,
      "Bunlar": 3187,
      "duydum": 3188,
      "birbirine": 3189,
      "bağışlayın": 3190,
      "larınızı": 3191,
      "karıştır": 3192,
      "Aklı": 3193,
      "Polya": 3194,
      "Yüzü": 3195,
      "dünyada": 3196,
      "deminki": 3197,
      "Kendini": 3198,
      "söylerken": 3199,
      "laşıp": 3200,
      "hissediyordu": 3201,
      "baltayı": 3202,
      "Yarın": 3203,
      "vücudu": 3204,
      "Yeniden": 3205,
      "kimseyi": 3206,
      "iskemle": 3207,
      "Bazen": 3208,
      "Uzun": 3209,
      "Lütfen": 3210,
      "Napol": 3211,
      "Zavallı": 3212,
      "Kapernaumov": 3213,
      "Buna": 3214,
      "Fran": 3215,
      "Kol": 3216,
      "Nev": 3217,
      "Res": 3218,
      "Yap": 3219,
      "böl": 3220,
      "car": 3221,
      "eh": 3222,
      "eşit": 3223,
      "omuz": 3224,
      "ufak": 3225,
      "ydım": 3226,
      "İsa": 3227,
      "İster": 3228,
      "erdem": 3229,
      "deyim": 3230,
      "leke": 3231,
      "yorgun": 3232,
      "onca": 3233,
      "lip": 3234,
      "eymiş": 3235,
      "tıra": 3236,
      "tıcı": 3237,
      "buru": 3238,
      "kibar": 3239,
      "baç": 3240,
      "ırken": 3241,
      "etmez": 3242,
      "başvur": 3243,
      "saniye": 3244,
      "almıştı": 3245,
      "iri": 3246,
      "versin": 3247,
      "atmış": 3248,
      "çıkmaz": 3249,
      "lıklar": 3250,
      "çağrı": 3251,
      "gerçi": 3252,
      "çoktan": 3253,
      "şıp": 3254,
      "bileyim": 3255,
      "aracı": 3256,
      "şurada": 3257,
      "evin": 3258,
      "anladı": 3259,
      "anlamıştı": 3260,
      "olabileceğini": 3261,
      "yapmak": 3262,
      "yaptım": 3263,
      "çekmek": 3264,
      "göze": 3265,
      "gözlerinde": 3266,
      "koc": 3267,
      "müyordu": 3268,
      "kızdı": 3269,
      "kıyı": 3270,
      "kılıklı": 3271,
      "kendinde": 3272,
      "insanlara": 3273,
      "gerekiyor": 3274,
      "gitmeye": 3275,
      "yaklaştı": 3276,
      "sayın": 3277,
      "ters": 3278,
      "sesleri": 3279,
      "ediyorsunuz": 3280,
      "kardeşine": 3281,
      "mize": 3282,
      "sıkıntı": 3283,
      "kadındı": 3284,
      "düşünceli": 3285,
      "beklenmedik": 3286,
      "çeşit": 3287,
      "kesti": 3288,
      "yoluna": 3289,
      "korkuyorum": 3290,
      "aşağ": 3291,
      "üstünde": 3292,
      "çiğ": 3293,
      "diğine": 3294,
      "herif": 3295,
      "adre": 3296,
      "ederek": 3297,
      "öfkeli": 3298,
      "lığında": 3299,
      "gidiyor": 3300,
      "cağına": 3301,
      "Senin": 3302,
      "annesinin": 3303,
      "sekret": 3304,
      "önemlisi": 3305,
      "oturuyor": 3306,
      "belirsiz": 3307,
      "görüşme": 3308,
      "süzdü": 3309,
      "bulup": 3310,
      "düzel": 3311,
      "anlamlı": 3312,
      "meyhanede": 3313,
      "bulunuyor": 3314,
      "yavaşça": 3315,
      "fısıltı": 3316,
      "fısıldadı": 3317,
      "kaşlarını": 3318,
      "kımılda": 3319,
      "çizgi": 3320,
      "yabancı": 3321,
      "çıkarıp": 3322,
      "nöbet": 3323,
      "Yüreği": 3324,
      "Büyük": 3325,
      "eğlence": 3326,
      "Kuşku": 3327,
      "Ap": 3328,
      "Eski": 3329,
      "Odanın": 3330,
      "Otur": 3331,
      "alama": 3332,
      "cil": 3333,
      "ker": 3334,
      "lmaz": 3335,
      "neyse": 3336,
      "os": 3337,
      "oz": 3338,
      "papaz": 3339,
      "rol": 3340,
      "rsuz": 3341,
      "tör": 3342,
      "ydü": 3343,
      "Ça": 3344,
      "öbür": 3345,
      "şim": 3346,
      "”,": 3347,
      "anlar": 3348,
      "birine": 3349,
      "maş": 3350,
      "mamız": 3351,
      "masından": 3352,
      "yahu": 3353,
      "lemeye": 3354,
      "leyin": 3355,
      "labilir": 3356,
      "duya": 3357,
      "kaya": 3358,
      "kayı": 3359,
      "liş": 3360,
      "lilik": 3361,
      "miyim": 3362,
      "bat": 3363,
      "babas": 3364,
      "gire": 3365,
      "sil": 3366,
      "sağa": 3367,
      "mel": 3368,
      "meler": 3369,
      "meme": 3370,
      "tamam": 3371,
      "razı": 3372,
      "elleri": 3373,
      "eliniz": 3374,
      "tuz": 3375,
      "muyor": 3376,
      "üzgün": 3377,
      "sanıyordu": 3378,
      "azete": 3379,
      "işaret": 3380,
      "amacı": 3381,
      "görmeye": 3382,
      "luğa": 3383,
      "bakan": 3384,
      "bakıp": 3385,
      "gelin": 3386,
      "olayı": 3387,
      "mayacağım": 3388,
      "söylemiştim": 3389,
      "yapılmış": 3390,
      "bilmez": 3391,
      "cekti": 3392,
      "küpe": 3393,
      "günlerde": 3394,
      "duruyorsunuz": 3395,
      "olmasın": 3396,
      "geçer": 3397,
      "bilirsin": 3398,
      "bütünüyle": 3399,
      "yüksel": 3400,
      "şeylerden": 3401,
      "dığımı": 3402,
      "istediği": 3403,
      "istemiyordu": 3404,
      "başkası": 3405,
      "bulundu": 3406,
      "açıklaya": 3407,
      "dönüş": 3408,
      "parç": 3409,
      "parmak": 3410,
      "köşeye": 3411,
      "söv": 3412,
      "halinde": 3413,
      "yürek": 3414,
      "şimdilik": 3415,
      "öldü": 3416,
      "kırk": 3417,
      "yaşlı": 3418,
      "yaşlarında": 3419,
      "okudu": 3420,
      "okumaya": 3421,
      "istiyorsunuz": 3422,
      "altın": 3423,
      "İşin": 3424,
      "hatırla": 3425,
      "diğinizi": 3426,
      "Alyona": 3427,
      "adını": 3428,
      "gidiyordu": 3429,
      "laket": 3430,
      "bakışlarını": 3431,
      "dikkatli": 3432,
      "şaşırmış": 3433,
      "dıklarını": 3434,
      "sapsarı": 3435,
      "kalkış": 3436,
      "uğraş": 3437,
      "oturuyordu": 3438,
      "sahib": 3439,
      "lerimle": 3440,
      "kelimeyle": 3441,
      "manızı": 3442,
      "Saat": 3443,
      "titreyerek": 3444,
      "yetiş": 3445,
      "titredi": 3446,
      "oradan": 3447,
      "Nerede": 3448,
      "bildiğince": 3449,
      "Kaf": 3450,
      "tatlı": 3451,
      "henüz": 3452,
      "açığa": 3453,
      "çileden": 3454,
      "Mitri": 3455,
      "Tuhaf": 3456,
      "kalabalığı": 3457,
      "başlangıç": 3458,
      "banknot": 3459,
      "Arkadiy": 3460,
      "Hımm": 3461,
      "pişman": 3462,
      "koridor": 3463,
      "bembeyaz": 3464,
      "Napolyon": 3465,
      "aşağılan": 3466,
      "Ay": 3467,
      "Bar": 3468,
      "Derken": 3469,
      "Gü": 3470,
      "Hoş": 3471,
      "Si": 3472,
      "Su": 3473,
      "alıyor": 3474,
      "ccar": 3475,
      "gara": 3476,
      "hı": 3477,
      "sli": 3478,
      "tun": 3479,
      "uş": 3480,
      "zil": 3481,
      "çaldı": 3482,
      "ğinden": 3483,
      "enka": 3484,
      "dib": 3485,
      "divana": 3486,
      "desi": 3487,
      "bayı": 3488,
      "hap": 3489,
      "hale": 3490,
      "denli": 3491,
      "mediğini": 3492,
      "elli": 3493,
      "etmiştim": 3494,
      "tutar": 3495,
      "neme": 3496,
      "mişler": 3497,
      "aldım": 3498,
      "karım": 3499,
      "kutu": 3500,
      "yanıl": 3501,
      "işli": 3502,
      "işçi": 3503,
      "amam": 3504,
      "sizlik": 3505,
      "suya": 3506,
      "surat": 3507,
      "mekle": 3508,
      "özgür": 3509,
      "Soneçka": 3510,
      "söylemeye": 3511,
      "bilmiyordu": 3512,
      "sıcak": 3513,
      "gümüş": 3514,
      "gücen": 3515,
      "güveni": 3516,
      "yerlerde": 3517,
      "gözlerine": 3518,
      "best": 3519,
      "lene": 3520,
      "senden": 3521,
      "senedi": 3522,
      "sorunun": 3523,
      "kendinizi": 3524,
      "tıktan": 3525,
      "dikti": 3526,
      "gereksiz": 3527,
      "gerekecek": 3528,
      "içindeki": 3529,
      "laşmış": 3530,
      "ınızda": 3531,
      "sırasında": 3532,
      "yalvar": 3533,
      "istedim": 3534,
      "başladılar": 3535,
      "açıktı": 3536,
      "odayı": 3537,
      "odasında": 3538,
      "halk": 3539,
      "halini": 3540,
      "katlana": 3541,
      "kırık": 3542,
      "biricik": 3543,
      "ilip": 3544,
      "peki": 3545,
      "Anla": 3546,
      "Anlıyor": 3547,
      "inanın": 3548,
      "inandır": 3549,
      "inanıyor": 3550,
      "bırakıp": 3551,
      "yolun": 3552,
      "yoldan": 3553,
      "düşündüğ": 3554,
      "hatırlaya": 3555,
      "getirdi": 3556,
      "aşağılayıcı": 3557,
      "göstermek": 3558,
      "göstererek": 3559,
      "cağınız": 3560,
      "merdivenlere": 3561,
      "merdivenlerde": 3562,
      "benziyordu": 3563,
      "fazlaca": 3564,
      "adımlarla": 3565,
      "duyulur": 3566,
      "duyuluyordu": 3567,
      "oturur": 3568,
      "aklını": 3569,
      "olsam": 3570,
      "gönül": 3571,
      "ayağa": 3572,
      "hızlı": 3573,
      "bağışla": 3574,
      "cenaze": 3575,
      "delikanlının": 3576,
      "uçu": 3577,
      "alaycı": 3578,
      "yastı": 3579,
      "uyandı": 3580,
      "kavra": 3581,
      "Kendine": 3582,
      "kiracı": 3583,
      "coşku": 3584,
      "Kork": 3585,
      "ağabey": 3586,
      "Gide": 3587,
      "sabırsızlıkla": 3588,
      "köylü": 3589,
      "tehlikeli": 3590,
      "annen": 3591,
      "haykırdı": 3592,
      "şaşılacak": 3593,
      "Bırakın": 3594,
      "Kimi": 3595,
      "becer": 3596,
      "teslim": 3597,
      "Özellikle": 3598,
      "azizim": 3599,
      "Neva": 3600,
      "Ayr": 3601,
      "Dış": 3602,
      "Ge": 3603,
      "Git": 3604,
      "Mey": 3605,
      "Mas": 3606,
      "Pe": 3607,
      "Ri": 3608,
      "Ver": 3609,
      "ayeti": 3610,
      "dördüncü": 3611,
      "gan": 3612,
      "if": 3613,
      "klarını": 3614,
      "om": 3615,
      "pay": 3616,
      "tmak": 3617,
      "usu": 3618,
      "çu": 3619,
      "çiç": 3620,
      "öm": 3621,
      "öy": 3622,
      "ısır": 3623,
      "şara": 3624,
      "indi": 3625,
      "arma": 3626,
      "dala": 3627,
      "birbiri": 3628,
      "lemiş": 3629,
      "leyen": 3630,
      "ekmek": 3631,
      "içer": 3632,
      "tip": 3633,
      "ovu": 3634,
      "saa": 3635,
      "memu": 3636,
      "etmeyin": 3637,
      "öyleyse": 3638,
      "muy": 3639,
      "muşa": 3640,
      "muyum": 3641,
      "imza": 3642,
      "yecek": 3643,
      "gez": 3644,
      "baştan": 3645,
      "eminim": 3646,
      "işan": 3647,
      "irki": 3648,
      "ındaki": 3649,
      "vermeye": 3650,
      "isini": 3651,
      "atmaya": 3652,
      "çıkmaya": 3653,
      "sona": 3654,
      "düşmüş": 3655,
      "lıkta": 3656,
      "lüğ": 3657,
      "likleri": 3658,
      "yıka": 3659,
      "lanet": 3660,
      "şaka": 3661,
      "geldiği": 3662,
      "gelmez": 3663,
      "düşünür": 3664,
      "mıştır": 3665,
      "yapan": 3666,
      "bilmesi": 3667,
      "olduğunuzu": 3668,
      "yerini": 3669,
      "gözlerinin": 3670,
      "gündür": 3671,
      "günah": 3672,
      "güneş": 3673,
      "yüzük": 3674,
      "müyor": 3675,
      "geçmişti": 3676,
      "kadarı": 3677,
      "doğrudan": 3678,
      "doğruldu": 3679,
      "bilirdim": 3680,
      "insana": 3681,
      "tıkan": 3682,
      "dikmiş": 3683,
      "Bence": 3684,
      "gereksini": 3685,
      "reh": 3686,
      "karşısına": 3687,
      "olanlar": 3688,
      "süren": 3689,
      "sürgü": 3690,
      "mezar": 3691,
      "buluna": 3692,
      "bulunmak": 3693,
      "dinledi": 3694,
      "sarıldı": 3695,
      "yazdığı": 3696,
      "yazgı": 3697,
      "acılar": 3698,
      "ağız": 3699,
      "örtü": 3700,
      "ahla": 3701,
      "ahlak": 3702,
      "esaslı": 3703,
      "tasar": 3704,
      "tasını": 3705,
      "görüyor": 3706,
      "kadındır": 3707,
      "inanıyorum": 3708,
      "konuşmak": 3709,
      "hoşça": 3710,
      "uygu": 3711,
      "yaşama": 3712,
      "okur": 3713,
      "kuruntu": 3714,
      "kuşkulan": 3715,
      "öğrenmek": 3716,
      "topra": 3717,
      "seyre": 3718,
      "hakkı": 3719,
      "oğun": 3720,
      "anlıyordu": 3721,
      "daldı": 3722,
      "serbest": 3723,
      "zorun": 3724,
      "şturu": 3725,
      "olacaktı": 3726,
      "başlamış": 3727,
      "yürüyordu": 3728,
      "anlattık": 3729,
      "atıp": 3730,
      "fırladı": 3731,
      "fırsat": 3732,
      "cıkta": 3733,
      "damla": 3734,
      "gelirim": 3735,
      "heyecanlı": 3736,
      "Bunları": 3737,
      "oyna": 3738,
      "süs": 3739,
      "Biliyorum": 3740,
      "ünüzü": 3741,
      "olmakla": 3742,
      "yaptığını": 3743,
      "Polis": 3744,
      "yararlı": 3745,
      "felaket": 3746,
      "Bilmem": 3747,
      "ucuna": 3748,
      "sevgili": 3749,
      "evlilik": 3750,
      "düşünceye": 3751,
      "Tüh": 3752,
      "savun": 3753,
      "gösteriyordu": 3754,
      "pencereye": 3755,
      "vazgeç": 3756,
      "psikolojik": 3757,
      "Amma": 3758,
      "neşeli": 3759,
      "namuslu": 3760,
      "ucuyla": 3761,
      "apartman": 3762,
      "Ressli": 3763,
      "hıç": 3764,
      "Resslich": 3765,
      "!)": 3766,
      "Ağ": 3767,
      "Ada": 3768,
      "Bes": 3769,
      "Beş": 3770,
      "Cin": 3771,
      "Cad": 3772,
      "Müthiş": 3773,
      "Paş": 3774,
      "Sakın": 3775,
      "Var": 3776,
      "ab": 3777,
      "ait": 3778,
      "ceyi": 3779,
      "gazete": 3780,
      "hhö": 3781,
      "kinden": 3782,
      "lmuştu": 3783,
      "nek": 3784,
      "net": 3785,
      "sbütün": 3786,
      "tol": 3787,
      "çö": 3788,
      "çır": 3789,
      "çoğu": 3790,
      "İz": 3791,
      "İzin": 3792,
      "şuna": 3793,
      "ﬁlan": 3794,
      "ﬂı": 3795,
      "inmeye": 3796,
      "arda": 3797,
      "arasına": 3798,
      "dip": 3799,
      "diş": 3800,
      "değ": 3801,
      "demir": 3802,
      "mamı": 3803,
      "yav": 3804,
      "yalı": 3805,
      "yaşı": 3806,
      "yasal": 3807,
      "leyi": 3808,
      "dul": 3809,
      "aklım": 3810,
      "tılar": 3811,
      "buydu": 3812,
      "asi": 3813,
      "inir": 3814,
      "dene": 3815,
      "mes": 3816,
      "melerini": 3817,
      "taban": 3818,
      "göm": 3819,
      "gömle": 3820,
      "mujik": 3821,
      "teşek": 3822,
      "tefe": 3823,
      "yeş": 3824,
      "şeydir": 3825,
      "aydır": 3826,
      "ürper": 3827,
      "başlar": 3828,
      "altüst": 3829,
      "karma": 3830,
      "kumaş": 3831,
      "yanan": 3832,
      "işken": 3833,
      "işim": 3834,
      "işten": 3835,
      "görev": 3836,
      "suyla": 3837,
      "vermez": 3838,
      "isel": 3839,
      "özgü": 3840,
      "lup": 3841,
      "inizle": 3842,
      "tanır": 3843,
      "aralık": 3844,
      "dediği": 3845,
      "geldik": 3846,
      "indeki": 3847,
      "bilmiş": 3848,
      "ışıl": 3849,
      "tüken": 3850,
      "gözle": 3851,
      "sınır": 3852,
      "dururken": 3853,
      "iyiye": 3854,
      "gerekiyordu": 3855,
      "otka": 3856,
      "dinliyordu": 3857,
      "sarsı": 3858,
      "açıldı": 3859,
      "acıyla": 3860,
      "ahu": 3861,
      "kardeşini": 3862,
      "mizin": 3863,
      "görüyordu": 3864,
      "görülen": 3865,
      "kırı": 3866,
      "sevim": 3867,
      "mızın": 3868,
      "düşüncelerini": 3869,
      "ümüz": 3870,
      "hoşlan": 3871,
      "saldır": 3872,
      "istiyordum": 3873,
      "oturmuş": 3874,
      "üstün": 3875,
      "çevr": 3876,
      "yeten": 3877,
      "getirir": 3878,
      "gizemli": 3879,
      "soruyu": 3880,
      "eskiden": 3881,
      "annesi": 3882,
      "merdivenleri": 3883,
      "dök": 3884,
      "sinirlendir": 3885,
      "hazırım": 3886,
      "ısrar": 3887,
      "fırla": 3888,
      "cinayeti": 3889,
      "gülmeye": 3890,
      "dinlemeye": 3891,
      "kâr": 3892,
      "uzaklaştır": 3893,
      "götürdü": 3894,
      "belirti": 3895,
      "saygıdeğer": 3896,
      "doluydu": 3897,
      "unutmuş": 3898,
      "birbirlerini": 3899,
      "yönünden": 3900,
      "sessizlik": 3901,
      "Def": 3902,
      "koşup": 3903,
      "başıma": 3904,
      "karışık": 3905,
      "leniyordu": 3906,
      "ayrıntılarıyla": 3907,
      "perişan": 3908,
      "ötede": 3909,
      "lattı": 3910,
      "bakındı": 3911,
      "bilinç": 3912,
      "laşıyor": 3913,
      "tekrarladı": 3914,
      "umutsuzluk": 3915,
      "bitenleri": 3916,
      "gerçeğe": 3917,
      "herkesten": 3918,
      "kalırsa": 3919,
      "indirdi": 3920,
      "yağmur": 3921,
      "prote": 3922,
      "resmi": 3923,
      "kulağına": 3924,
      "yardımı": 3925,
      "Sarhoş": 3926,
      "edebiyat": 3927,
      "babasının": 3928,
      "Rica": 3929,
      "armağan": 3930,
      "saati": 3931,
      "Besbelli": 3932,
      "Paşenka": 3933,
      "teşekkür": 3934,
      ".[": 3935,
      "Ayak": 3936,
      "Lyon": 3937,
      "Mah": 3938,
      "Penc": 3939,
      "Te": 3940,
      "Zah": 3941,
      "aşı": 3942,
      "ağr": 3943,
      "cır": 3944,
      "huy": 3945,
      "neydi": 3946,
      "oya": 3947,
      "tel": 3948,
      "yonun": 3949,
      "ydınız": 3950,
      "Çık": 3951,
      "Çay": 3952,
      "üs": 3953,
      "ğinin": 3954,
      "ımı": 3955,
      "şükür": 3956,
      "inerken": 3957,
      "ertesi": 3958,
      "dilerim": 3959,
      "bira": 3960,
      "birer": 3961,
      "birik": 3962,
      "yayım": 3963,
      "unca": 3964,
      "laf": 3965,
      "duyan": 3966,
      "kadeh": 3967,
      "olmaktan": 3968,
      "olsaydım": 3969,
      "liz": 3970,
      "liğini": 3971,
      "lerdir": 3972,
      "lerinizi": 3973,
      "eyin": 3974,
      "buz": 3975,
      "bulama": 3976,
      "babası": 3977,
      "hapis": 3978,
      "giyin": 3979,
      "sigara": 3980,
      "etmesi": 3981,
      "etmiyorum": 3982,
      "nedir": 3983,
      "başım": 3984,
      "sanıyorsunuz": 3985,
      "allah": 3986,
      "bence": 3987,
      "kusu": 3988,
      "yanın": 3989,
      "ire": 3990,
      "çıkara": 3991,
      "izlen": 3992,
      "geris": 3993,
      "arabanın": 3994,
      "bakmadan": 3995,
      "düşünmek": 3996,
      "düşünerek": 3997,
      "bilim": 3998,
      "anladım": 3999,
      "olabildiğince": 4000,
      "mayacağı": 4001,
      "böyledir": 4002,
      "yapılan": 4003,
      "yapayım": 4004,
      "bilmişti": 4005,
      "bilmiyor": 4006,
      "sıt": 4007,
      "derken": 4008,
      "çekmeye": 4009,
      "bulmuş": 4010,
      "bulmuştu": 4011,
      "durur": 4012,
      "yüzle": 4013,
      "Birkaç": 4014,
      "kızdır": 4015,
      "Neler": 4016,
      "kendinize": 4017,
      "zamanki": 4018,
      "zamanlarda": 4019,
      "rezil": 4020,
      "sürdü": 4021,
      "gitme": 4022,
      "şeylerle": 4023,
      "isteği": 4024,
      "istemiş": 4025,
      "istediğini": 4026,
      "istemiştim": 4027,
      "başkalarının": 4028,
      "taki": 4029,
      "odam": 4030,
      "parasını": 4031,
      "parayla": 4032,
      "açılan": 4033,
      "büsbütün": 4034,
      "katta": 4035,
      "ahmak": 4036,
      "durumlarda": 4037,
      "kimin": 4038,
      "görüyorum": 4039,
      "kadınla": 4040,
      "kadınların": 4041,
      "Annem": 4042,
      "hastan": 4043,
      "bırakın": 4044,
      "kestir": 4045,
      "yaşamak": 4046,
      "korkudan": 4047,
      "nemli": 4048,
      "ayrım": 4049,
      "kurşun": 4050,
      "gene": 4051,
      "istiyorsun": 4052,
      "altından": 4053,
      "kararsız": 4054,
      "üzerindeki": 4055,
      "tarih": 4056,
      "oğlunun": 4057,
      "getirmişti": 4058,
      "eğildi": 4059,
      "lırsa": 4060,
      "lığından": 4061,
      "dikkatini": 4062,
      "gösterdiği": 4063,
      "sağlıklı": 4064,
      "basit": 4065,
      "nite": 4066,
      "annesini": 4067,
      "annesiyle": 4068,
      "sıralarda": 4069,
      "Şimdiyse": 4070,
      "isterdim": 4071,
      "gittim": 4072,
      "gittiği": 4073,
      "ıslak": 4074,
      "Duyu": 4075,
      "diğimde": 4076,
      "yapacağı": 4077,
      "konuşur": 4078,
      "görüşmek": 4079,
      "bitkin": 4080,
      "kâğıd": 4081,
      "binlerce": 4082,
      "İkisi": 4083,
      "karakter": 4084,
      "bulur": 4085,
      "tutuk": 4086,
      "Elinde": 4087,
      "dokun": 4088,
      "ceğine": 4089,
      "gelmişken": 4090,
      "luğunu": 4091,
      "ikincisi": 4092,
      "Başı": 4093,
      "Bağış": 4094,
      "Karşı": 4095,
      "Mikolay": 4096,
      "kova": 4097,
      "Kapıcı": 4098,
      "panya": 4099,
      "çektiği": 4100,
      "yargıç": 4101,
      "Düşüne": 4102,
      "solgun": 4103,
      "kimileri": 4104,
      "sokakta": 4105,
      "bildiğine": 4106,
      "menizi": 4107,
      "sevinçle": 4108,
      "severim": 4109,
      "satıcı": 4110,
      "kavuş": 4111,
      "Mitka": 4112,
      "ihtiya": 4113,
      "gözyaşları": 4114,
      "köprü": 4115,
      "şeref": 4116,
      "milyon": 4117,
      "Ceza": 4118,
      "Çevre": 4119,
      "Balta": 4120,
      "kışkır": 4121,
      "Kolya": 4122,
      "aracılığıyla": 4123,
      "Kuşkusuz": 4124,
      "Aptal": 4125,
      "Çabu": 4126,
      "becerik": 4127,
      "ahlaki": 4128,
      "çökü": 4129,
      "Lyonya": 4130,
      "Zahar": 4131,
      ").": 4132,
      ".)": 4133,
      "Dok": 4134,
      "Gö": 4135,
      "Ni": 4136,
      "Sek": 4137,
      "Sağ": 4138,
      "Tükür": 4139,
      "Yer": 4140,
      "Yahu": 4141,
      "br": 4142,
      "bbi": 4143,
      "beye": 4144,
      "cay": 4145,
      "ceye": 4146,
      "eğini": 4147,
      "lok": 4148,
      "num": 4149,
      "nere": 4150,
      "pey": 4151,
      "sön": 4152,
      "soku": 4153,
      "tti": 4154,
      "uğu": 4155,
      "vir": 4156,
      "yoğun": 4157,
      "öhhö": 4158,
      "ğun": 4159,
      "şik": 4160,
      "inana": 4161,
      "andır": 4162,
      "armış": 4163,
      "diyerek": 4164,
      "birinden": 4165,
      "birinci": 4166,
      "lemişti": 4167,
      "later": 4168,
      "kata": 4169,
      "kabar": 4170,
      "kabı": 4171,
      "lardır": 4172,
      "onlarla": 4173,
      "dılar": 4174,
      "ekâ": 4175,
      "liben": 4176,
      "buy": 4177,
      "budur": 4178,
      "mıza": 4179,
      "mıyorsunuz": 4180,
      "denin": 4181,
      "giyim": 4182,
      "ırcasına": 4183,
      "savaş": 4184,
      "raz": 4185,
      "elleriyle": 4186,
      "etini": 4187,
      "kente": 4188,
      "sesini": 4189,
      "temel": 4190,
      "ruz": 4191,
      "ğıyla": 4192,
      "ınıyordu": 4193,
      "başa": 4194,
      "başar": 4195,
      "emek": 4196,
      "onur": 4197,
      "umlu": 4198,
      "görmemiş": 4199,
      "verme": 4200,
      "varlığını": 4201,
      "öneri": 4202,
      "önünden": 4203,
      "çıktığı": 4204,
      "diyelim": 4205,
      "ize": 4206,
      "maksızın": 4207,
      "yış": 4208,
      "tanıyor": 4209,
      "aramızda": 4210,
      "şura": 4211,
      "düşünmeye": 4212,
      "evlenme": 4213,
      "söyleme": 4214,
      "söylemedi": 4215,
      "bildiğim": 4216,
      "olduğum": 4217,
      "çekecek": 4218,
      "kalmadı": 4219,
      "buldum": 4220,
      "günden": 4221,
      "beti": 4222,
      "senet": 4223,
      "sorar": 4224,
      "biliriz": 4225,
      "durmuştu": 4226,
      "gitsin": 4227,
      "yükse": 4228,
      "şeylere": 4229,
      "sırf": 4230,
      "bulunduğ": 4231,
      "bulunması": 4232,
      "açıkladı": 4233,
      "yakov": 4234,
      "gelişi": 4235,
      "saydınız": 4236,
      "bağırıyordu": 4237,
      "parası": 4238,
      "ıplak": 4239,
      "kaçın": 4240,
      "ağlıyor": 4241,
      "suzluk": 4242,
      "birileri": 4243,
      "bekledi": 4244,
      "düşündüğü": 4245,
      "görecek": 4246,
      "ilgisi": 4247,
      "korkut": 4248,
      "üstüne": 4249,
      "mutfak": 4250,
      "toprak": 4251,
      "Onlar": 4252,
      "Onların": 4253,
      "diğinden": 4254,
      "gideceğim": 4255,
      "?..”": 4256,
      "suçu": 4257,
      "çalıştı": 4258,
      "kesildi": 4259,
      "bari": 4260,
      "kafayı": 4261,
      "alacak": 4262,
      "dinlemek": 4263,
      "kötülük": 4264,
      "aklından": 4265,
      "beklemeye": 4266,
      "yardımcı": 4267,
      "Bunların": 4268,
      "pencereden": 4269,
      "Bayan": 4270,
      "yönel": 4271,
      "ağzını": 4272,
      "ağzına": 4273,
      "elindeki": 4274,
      "düzgün": 4275,
      "anlamda": 4276,
      "veririm": 4277,
      "düşünüyor": 4278,
      "lanacak": 4279,
      "cinayetten": 4280,
      "hayatın": 4281,
      "luğun": 4282,
      "bulunuyorum": 4283,
      "arkadaşı": 4284,
      "cesaretini": 4285,
      "pantol": 4286,
      "Akl": 4287,
      "katıl": 4288,
      "Polon": 4289,
      "dünyaya": 4290,
      "Kur": 4291,
      "titremeye": 4292,
      "Gözleri": 4293,
      "ötesinde": 4294,
      "ucunda": 4295,
      "avuc": 4296,
      "dostça": 4297,
      "coşkun": 4298,
      "kirli": 4299,
      "öğrencisi": 4300,
      "tuttuğu": 4301,
      "içtenlikle": 4302,
      "sabırsız": 4303,
      "tiksintiyle": 4304,
      "boyacı": 4305,
      "girip": 4306,
      "dostum": 4307,
      "görülüyordu": 4308,
      "çocuğu": 4309,
      "kural": 4310,
      "gömül": 4311,
      "paçavra": 4312,
      "kanala": 4313,
      "çeşitli": 4314,
      "şimşek": 4315,
      "başlangıçta": 4316,
      "Gidelim": 4317,
      "Dışarı": 4318,
      "omz": 4319,
      "çiçek": 4320,
      "şarap": 4321,
      "Caddesi": 4322,
      "tefeci": 4323,
      "yeşil": 4324,
      "sevimli": 4325,
      "Düşünebiliyor": 4326,
      "Arada": 4327,
      "Diye": 4328,
      "Gün": 4329,
      "Güzel": 4330,
      "Har": 4331,
      "Karak": 4332,
      "Köp": 4333,
      "Lyu": 4334,
      "Ol": 4335,
      "Or": 4336,
      "To": 4337,
      "Tıp": 4338,
      "Za": 4339,
      "esin": 4340,
      "emez": 4341,
      "kr": 4342,
      "kça": 4343,
      "mo": 4344,
      "mar": 4345,
      "neyi": 4346,
      "rek": 4347,
      "ulaş": 4348,
      "yöne": 4349,
      "Öğren": 4350,
      "Önemli": 4351,
      "Üst": 4352,
      "çları": 4353,
      "ülü": 4354,
      "ğunu": 4355,
      "şişe": 4356,
      "ﬁn": 4357,
      "ans": 4358,
      "anız": 4359,
      "diyorsunuz": 4360,
      "def": 4361,
      "birinde": 4362,
      "yayın": 4363,
      "kati": 4364,
      "larken": 4365,
      "larca": 4366,
      "dığınız": 4367,
      "akra": 4368,
      "tıyor": 4369,
      "buyur": 4370,
      "içini": 4371,
      "kibir": 4372,
      "inip": 4373,
      "haberi": 4374,
      "hayata": 4375,
      "mıyım": 4376,
      "ırlar": 4377,
      "sab": 4378,
      "mefendi": 4379,
      "cehen": 4380,
      "tab": 4381,
      "tabaka": 4382,
      "raman": 4383,
      "muydu": 4384,
      "mışsınız": 4385,
      "aln": 4386,
      "aldat": 4387,
      "bende": 4388,
      "kollarını": 4389,
      "azar": 4390,
      "umar": 4391,
      "görmez": 4392,
      "verdiğini": 4393,
      "sonrak": 4394,
      "naf": 4395,
      "herkesi": 4396,
      "riyakov": 4397,
      "landığı": 4398,
      "lanıp": 4399,
      "araya": 4400,
      "gelmeye": 4401,
      "şuma": 4402,
      "evden": 4403,
      "anlamak": 4404,
      "Bura": 4405,
      "mayacağını": 4406,
      "striyakov": 4407,
      "yapma": 4408,
      "bildim": 4409,
      "ladım": 4410,
      "çekin": 4411,
      "bulmak": 4412,
      "bulduğu": 4413,
      "kapıl": 4414,
      "kaptır": 4415,
      "tüccar": 4416,
      "gözünde": 4417,
      "gözlerimle": 4418,
      "kocası": 4419,
      "bela": 4420,
      "doğa": 4421,
      "olmasaydı": 4422,
      "geçiyordu": 4423,
      "geçiyor": 4424,
      "senliben": 4425,
      "doğruya": 4426,
      "iyiden": 4427,
      "iyileş": 4428,
      "insanları": 4429,
      "karşıya": 4430,
      "sürgün": 4431,
      "edebilir": 4432,
      "kapısının": 4433,
      "adamla": 4434,
      "takın": 4435,
      "sars": 4436,
      "terk": 4437,
      "kaçar": 4438,
      "ettik": 4439,
      "yürürken": 4440,
      "yazık": 4441,
      "girmiş": 4442,
      "acılı": 4443,
      "türden": 4444,
      "durumun": 4445,
      "kardeşiniz": 4446,
      "kırbaç": 4447,
      "sıkıl": 4448,
      "bekler": 4449,
      "bekliyor": 4450,
      "ümden": 4451,
      "paralar": 4452,
      "yolcu": 4453,
      "yolunda": 4454,
      "uysal": 4455,
      "ilgiyle": 4456,
      "korkutu": 4457,
      "oturmakta": 4458,
      "öğrene": 4459,
      "öğrenmiş": 4460,
      "adına": 4461,
      "hakkak": 4462,
      "sahne": 4463,
      "saatte": 4464,
      "kayım": 4465,
      "eğil": 4466,
      "eğilip": 4467,
      "ülmüş": 4468,
      "gidiyorum": 4469,
      "suçlama": 4470,
      "Böylesi": 4471,
      "eşik": 4472,
      "korkmuş": 4473,
      "rubleyi": 4474,
      "hayran": 4475,
      "sorular": 4476,
      "basamak": 4477,
      "tutku": 4478,
      "tuttur": 4479,
      "uzunca": 4480,
      "anlatmaya": 4481,
      "söylüyorsunuz": 4482,
      "şaşırmıştı": 4483,
      "tanımadığı": 4484,
      "dökü": 4485,
      "dökül": 4486,
      "dıktan": 4487,
      "saptı": 4488,
      "öldürdüm": 4489,
      "devlet": 4490,
      "karısı": 4491,
      "konuşuyor": 4492,
      "bugüne": 4493,
      "yormuşçasına": 4494,
      "dışında": 4495,
      "belirdi": 4496,
      "sakın": 4497,
      "suskun": 4498,
      "kıpır": 4499,
      "değişik": 4500,
      "Hava": 4501,
      "ileride": 4502,
      "oyun": 4503,
      "tirip": 4504,
      "yöntem": 4505,
      "Kimse": 4506,
      "duvara": 4507,
      "alçaklık": 4508,
      "yatıştır": 4509,
      "İçinde": 4510,
      "yatağa": 4511,
      "gülüyordu": 4512,
      "katıla": 4513,
      "adamım": 4514,
      "nazik": 4515,
      "dolayısıyla": 4516,
      "meliyim": 4517,
      "dudaklarında": 4518,
      "yoksulluk": 4519,
      "ruhsal": 4520,
      "Bilmiyorum": 4521,
      "bozuk": 4522,
      "Bizim": 4523,
      "arkadaşının": 4524,
      "kişisel": 4525,
      "duyulmaz": 4526,
      "sandaly": 4527,
      "kavuştur": 4528,
      "vücud": 4529,
      "miydim": 4530,
      "ölçüde": 4531,
      "havası": 4532,
      "çorap": 4533,
      "çıldır": 4534,
      "Merak": 4535,
      "kamçı": 4536,
      "pansiyonun": 4537,
      "Saçma": 4538,
      "boğaz": 4539,
      "Genç": 4540,
      "Sayık": 4541,
      "zarar": 4542,
      "üyesi": 4543,
      "fısıltıyla": 4544,
      "kayıt": 4545,
      "Hoşça": 4546,
      "hapse": 4547,
      "coşkuyla": 4548,
      "Ayrı": 4549,
      "Pestriyakov": 4550,
      "çırp": 4551,
      "karmakarışık": 4552,
      "işkence": 4553,
      "protesto": 4554,
      "Çabuk": 4555,
      "Doktor": 4556,
      "beyefendi": 4557,
      "Polonyalı": 4558,
      "Diyelim": 4559,
      "Afan": 4560,
      "Bek": 4561,
      "Dört": 4562,
      "Me": 4563,
      "Mu": 4564,
      "Mek": 4565,
      "Pan": 4566,
      "Pav": 4567,
      "Yol": 4568,
      "Zar": 4569,
      "aça": 4570,
      "bol": 4571,
      "dvi": 4572,
      "govna": 4573,
      "hası": 4574,
      "ika": 4575,
      "lovna": 4576,
      "mür": 4577,
      "pr": 4578,
      "sola": 4579,
      "seri": 4580,
      "tunuz": 4581,
      "vil": 4582,
      "yız": 4583,
      "zekâ": 4584,
      "çene": 4585,
      "çıplak": 4586,
      "İste": 4587,
      "Şuna": 4588,
      "şin": 4589,
      "ﬁl": 4590,
      "ﬁne": 4591,
      "ant": 4592,
      "entar": 4593,
      "dili": 4594,
      "dilen": 4595,
      "dikili": 4596,
      "daydı": 4597,
      "dayım": 4598,
      "dahası": 4599,
      "birya": 4600,
      "malarına": 4601,
      "madınız": 4602,
      "laşa": 4603,
      "lası": 4604,
      "lamaz": 4605,
      "labilecek": 4606,
      "olana": 4607,
      "olmanız": 4608,
      "liğim": 4609,
      "lerse": 4610,
      "buyrun": 4611,
      "budala": 4612,
      "lız": 4613,
      "asık": 4614,
      "bağr": 4615,
      "babam": 4616,
      "mısın": 4617,
      "denile": 4618,
      "siya": 4619,
      "ceğin": 4620,
      "racak": 4621,
      "elden": 4622,
      "ettiniz": 4623,
      "danış": 4624,
      "okrat": 4625,
      "sebe": 4626,
      "sefer": 4627,
      "yetim": 4628,
      "ıldığı": 4629,
      "ılması": 4630,
      "ılmayacak": 4631,
      "mışım": 4632,
      "sanmıştım": 4633,
      "alç": 4634,
      "yansı": 4635,
      "işlen": 4636,
      "işlerin": 4637,
      "amadı": 4638,
      "görmüştü": 4639,
      "görmedim": 4640,
      "keder": 4641,
      "subay": 4642,
      "veril": 4643,
      "veremli": 4644,
      "varsın": 4645,
      "çıkıyordu": 4646,
      "düşer": 4647,
      "izliyordu": 4648,
      "luyor": 4649,
      "lüğü": 4650,
      "likten": 4651,
      "lanı": 4652,
      "lanması": 4653,
      "sinler": 4654,
      "gereği": 4655,
      "gergin": 4656,
      "dediko": 4657,
      "gelmek": 4658,
      "gelmiştim": 4659,
      "geldiniz": 4660,
      "anlayan": 4661,
      "Buyrun": 4662,
      "olabilirim": 4663,
      "oluş": 4664,
      "yapmaya": 4665,
      "yaptık": 4666,
      "bildik": 4667,
      "bilmediği": 4668,
      "yerin": 4669,
      "konularda": 4670,
      "ladık": 4671,
      "ladığını": 4672,
      "çekmiş": 4673,
      "çektir": 4674,
      "kalmak": 4675,
      "kalmamıştı": 4676,
      "gözünü": 4677,
      "gözünün": 4678,
      "gözleriyle": 4679,
      "gündüz": 4680,
      "koydu": 4681,
      "yüzünün": 4682,
      "sunun": 4683,
      "olmam": 4684,
      "olmasından": 4685,
      "dirsek": 4686,
      "kızla": 4687,
      "üzeri": 4688,
      "insanım": 4689,
      "kord": 4690,
      "korka": 4691,
      "yut": 4692,
      "arıyordu": 4693,
      "mezsiniz": 4694,
      "edeceğim": 4695,
      "şeylerin": 4696,
      "buralarda": 4697,
      "kapıda": 4698,
      "mazsınız": 4699,
      "başladım": 4700,
      "başladığı": 4701,
      "başladığını": 4702,
      "dönmüş": 4703,
      "dönüyor": 4704,
      "sos": 4705,
      "odası": 4706,
      "bağırmaya": 4707,
      "yüreğini": 4708,
      "hanı": 4709,
      "hanede": 4710,
      "girdiği": 4711,
      "girmez": 4712,
      "aşe": 4713,
      "örnek": 4714,
      "şimdiyse": 4715,
      "durumunu": 4716,
      "tasarı": 4717,
      "ıyorlardı": 4718,
      "sıkıştır": 4719,
      "sevdiği": 4720,
      "kadınlar": 4721,
      "laması": 4722,
      "düşüncelere": 4723,
      "ümle": 4724,
      "hoşnut": 4725,
      "çıkarmak": 4726,
      "lıyorsun": 4727,
      "ilgisini": 4728,
      "şidde": 4729,
      "kurtarı": 4730,
      "eceğini": 4731,
      "oturt": 4732,
      "Ondan": 4733,
      "hatırlıyorum": 4734,
      "yıllık": 4735,
      "diğin": 4736,
      "hastalığ": 4737,
      "arkasını": 4738,
      "sahte": 4739,
      "larındaki": 4740,
      "geleceğini": 4741,
      "davranışı": 4742,
      "gösterişli": 4743,
      "minnet": 4744,
      "cağından": 4745,
      "tutmuş": 4746,
      "tutarak": 4747,
      "güçsüz": 4748,
      "yürüy": 4749,
      "nit": 4750,
      "anlattığı": 4751,
      "ortalığı": 4752,
      "benzeyen": 4753,
      "lerindeki": 4754,
      "şaşırdı": 4755,
      "süredir": 4756,
      "Kendisine": 4757,
      "duyuyorum": 4758,
      "öldürmek": 4759,
      "Dudak": 4760,
      "fırlayıp": 4761,
      "ayakkabı": 4762,
      "uzaktan": 4763,
      "uzaklaş": 4764,
      "götürüp": 4765,
      "İyice": 4766,
      "haﬁﬂ": 4767,
      "Bakış": 4768,
      "söyleyeceğim": 4769,
      "maktadır": 4770,
      "saygıyla": 4771,
      "çarpıyordu": 4772,
      "bittiğini": 4773,
      "olduklarını": 4774,
      "memiştir": 4775,
      "vurdu": 4776,
      "rastgele": 4777,
      "Elini": 4778,
      "Elveda": 4779,
      "gerektiği": 4780,
      "ölümünden": 4781,
      "senize": 4782,
      "alçakça": 4783,
      "gönderdi": 4784,
      "öptü": 4785,
      "yatış": 4786,
      "yaptığım": 4787,
      "veremem": 4788,
      "yatağına": 4789,
      "başıyla": 4790,
      "noktada": 4791,
      "Adamın": 4792,
      "borc": 4793,
      "telaşlı": 4794,
      "yararlan": 4795,
      "Gözlerini": 4796,
      "ezilmiş": 4797,
      "şturdu": 4798,
      "Bununla": 4799,
      "titriyor": 4800,
      "yıkan": 4801,
      "Sokak": 4802,
      "isteye": 4803,
      "niyetinde": 4804,
      "haklısınız": 4805,
      "hissetti": 4806,
      "miydiniz": 4807,
      "kilitli": 4808,
      "merakla": 4809,
      "usulca": 4810,
      "öğüt": 4811,
      "dikip": 4812,
      "şaşırtmıştı": 4813,
      "kimseyle": 4814,
      "gördüğünüz": 4815,
      "kapandı": 4816,
      "tehlike": 4817,
      "göğsüne": 4818,
      "paltosunu": 4819,
      "bilmiyordum": 4820,
      "Rusya": 4821,
      "acımasız": 4822,
      "pansiyon": 4823,
      "boğucu": 4824,
      "bakılırsa": 4825,
      "düşünmüştüm": 4826,
      "duraksa": 4827,
      "dükkan": 4828,
      "Üzerinde": 4829,
      "Aklıma": 4830,
      "tören": 4831,
      "Sibirya": 4832,
      "muydunuz": 4833,
      "gereksinim": 4834,
      "toprağa": 4835,
      "leyici": 4836,
      "fırlatıp": 4837,
      "Duyuyor": 4838,
      "numara": 4839,
      "laterna": 4840,
      "Köprü": 4841,
      "Lyudvi": 4842,
      "Tıpkı": 4843,
      "cehenneme": 4844,
      "sonraki": 4845,
      "Ayrıca": 4846,
      "Lyudvigovna": 4847,
      "Ana": 4848,
      "Duy": 4849,
      "Er": 4850,
      "Es": 4851,
      "Fe": 4852,
      "Gece": 4853,
      "Kal": 4854,
      "Lip": 4855,
      "Nereden": 4856,
      "Pek": 4857,
      "Sev": 4858,
      "Vah": 4859,
      "alık": 4860,
      "alarak": 4861,
      "acın": 4862,
      "cana": 4863,
      "dönem": 4864,
      "eşi": 4865,
      "gaç": 4866,
      "gah": 4867,
      "hum": 4868,
      "hile": 4869,
      "hzel": 4870,
      "iyorsunuz": 4871,
      "iaşe": 4872,
      "küt": 4873,
      "neye": 4874,
      "por": 4875,
      "pas": 4876,
      "tük": 4877,
      "vır": 4878,
      "votka": 4879,
      "zeki": 4880,
      "çoğ": 4881,
      "ölen": 4882,
      "ötek": 4883,
      "öhö": 4884,
      "ﬂar": 4885,
      "ingeri": 4886,
      "arama": 4887,
      "eral": 4888,
      "birey": 4889,
      "mamaya": 4890,
      "malarını": 4891,
      "mavi": 4892,
      "maddi": 4893,
      "kaz": 4894,
      "kask": 4895,
      "ekle": 4896,
      "eksi": 4897,
      "bulan": 4898,
      "bulaş": 4899,
      "lıyorsunuz": 4900,
      "asker": 4901,
      "bayıl": 4902,
      "tiz": 4903,
      "deneyim": 4904,
      "vehzel": 4905,
      "sahan": 4906,
      "mede": 4907,
      "mese": 4908,
      "tacak": 4909,
      "göl": 4910,
      "dandı": 4911,
      "tuğu": 4912,
      "sedir": 4913,
      "unutu": 4914,
      "mişlerdi": 4915,
      "ürler": 4916,
      "sanat": 4917,
      "sandık": 4918,
      "alça": 4919,
      "yanıyordu": 4920,
      "yanımda": 4921,
      "iştir": 4922,
      "işlerini": 4923,
      "görsün": 4924,
      "keme": 4925,
      "verip": 4926,
      "isinde": 4927,
      "atın": 4928,
      "atmıştı": 4929,
      "varan": 4930,
      "varınca": 4931,
      "sonuna": 4932,
      "nağı": 4933,
      "dolaştı": 4934,
      "diyeceğim": 4935,
      "lıkları": 4936,
      "çağr": 4937,
      "yığı": 4938,
      "inizden": 4939,
      "bileceğim": 4940,
      "bilemiyorum": 4941,
      "şacak": 4942,
      "dedir": 4943,
      "bakar": 4944,
      "geldiğinde": 4945,
      "biliyordum": 4946,
      "değilsin": 4947,
      "değilsiniz": 4948,
      "evleni": 4949,
      "anlamaya": 4950,
      "anlatır": 4951,
      "Bul": 4952,
      "Burası": 4953,
      "olabilecek": 4954,
      "olacağı": 4955,
      "olabilirdi": 4956,
      "söyleyi": 4957,
      "söylediğini": 4958,
      "söyleyip": 4959,
      "böyleydi": 4960,
      "bilsey": 4961,
      "olduğundan": 4962,
      "konuya": 4963,
      "miştir": 4964,
      "zafer": 4965,
      "kapalı": 4966,
      "sözlerine": 4967,
      "duyum": 4968,
      "duymuştu": 4969,
      "sonraları": 4970,
      "duruyorsun": 4971,
      "olmasa": 4972,
      "meyeceğini": 4973,
      "yoksun": 4974,
      "soran": 4975,
      "tırman": 4976,
      "kızına": 4977,
      "Nedir": 4978,
      "üzereydi": 4979,
      "insanlık": 4980,
      "insansınız": 4981,
      "tıkça": 4982,
      "korkar": 4983,
      "Benden": 4984,
      "gerektir": 4985,
      "karşılaştı": 4986,
      "ikiye": 4987,
      "mazlar": 4988,
      "mazdım": 4989,
      "istemiyor": 4990,
      "adamlar": 4991,
      "bulunmadığını": 4992,
      "oturan": 4993,
      "yaklaştır": 4994,
      "dönmüştü": 4995,
      "odasından": 4996,
      "bağıra": 4997,
      "bağırıp": 4998,
      "parladı": 4999,
      "parlak": 5000,
      "parasız": 5001,
      "belle": 5002,
      "haline": 5003,
      "kanlı": 5004,
      "mizde": 5005,
      "incecik": 5006,
      "ranın": 5007,
      "inanmıyorum": 5008,
      "konuşmadan": 5009,
      "düşünceleri": 5010,
      "hastanın": 5011,
      "paralara": 5012,
      "çıkarmaya": 5013,
      "uyun": 5014,
      "korkuyordu": 5015,
      "kuşkuya": 5016,
      "kuşkuyla": 5017,
      "mesiyle": 5018,
      "olayın": 5019,
      "kararını": 5020,
      "toplu": 5021,
      "Onlara": 5022,
      "hastalığın": 5023,
      "Alçak": 5024,
      "arkasına": 5025,
      "ederler": 5026,
      "oğlu": 5027,
      "getiren": 5028,
      "aşağılama": 5029,
      "dalg": 5030,
      "eğitim": 5031,
      "derecede": 5032,
      "bakışta": 5033,
      "çalışma": 5034,
      "çalıştığı": 5035,
      "eğe": 5036,
      "tutmaya": 5037,
      "leşmişti": 5038,
      "saçları": 5039,
      "ortadan": 5040,
      "söylüyordu": 5041,
      "kaldırım": 5042,
      "duygular": 5043,
      "duygusu": 5044,
      "bardağı": 5045,
      "duyuyor": 5046,
      "uğradığı": 5047,
      "bileceklerini": 5048,
      "öldürdü": 5049,
      "şampanya": 5050,
      "yapabilir": 5051,
      "kahraman": 5052,
      "konuşurken": 5053,
      "Kapının": 5054,
      "utangaç": 5055,
      "liğine": 5056,
      "Baksanıza": 5057,
      "yardımda": 5058,
      "sevindim": 5059,
      "geçenlerde": 5060,
      "sonuc": 5061,
      "pevehzel": 5062,
      "unutmuştu": 5063,
      "masada": 5064,
      "birbirlerine": 5065,
      "ünüze": 5066,
      "tutuyor": 5067,
      "usta": 5068,
      "ağzında": 5069,
      "kimseden": 5070,
      "çalışıyor": 5071,
      "ceğinden": 5072,
      "koşulu": 5073,
      "Kızın": 5074,
      "lanabilir": 5075,
      "malıyım": 5076,
      "luğuna": 5077,
      "vereceğim": 5078,
      "dışarıda": 5079,
      "Kapıyı": 5080,
      "giderken": 5081,
      "perde": 5082,
      "sustuktan": 5083,
      "rengi": 5084,
      "görünüyordu": 5085,
      "nedeniyle": 5086,
      "Düşün": 5087,
      "bileceğimi": 5088,
      "olmazsa": 5089,
      "kardeşimin": 5090,
      "Görünü": 5091,
      "irade": 5092,
      "aydınla": 5093,
      "aydınlık": 5094,
      "sayılır": 5095,
      "elbisesi": 5096,
      "kopeği": 5097,
      "kişinin": 5098,
      "kişili": 5099,
      "duracak": 5100,
      "kahkahalarla": 5101,
      "yemeğine": 5102,
      "göğsü": 5103,
      "girişti": 5104,
      "gizlemeye": 5105,
      "kürek": 5106,
      "dilini": 5107,
      "Soka": 5108,
      "isteyen": 5109,
      "içkiye": 5110,
      "Sorun": 5111,
      "yüreğine": 5112,
      "yüreğinin": 5113,
      "gerekirdi": 5114,
      "huku": 5115,
      "Üçüncü": 5116,
      "koyuldu": 5117,
      "çirke": 5118,
      "uzandı": 5119,
      "olanaksızdı": 5120,
      "Haydi": 5121,
      "kokusu": 5122,
      "yırtık": 5123,
      "yerleştir": 5124,
      "nöbeti": 5125,
      "dostu": 5126,
      "adımı": 5127,
      "anlamıyla": 5128,
      "Bırak": 5129,
      "psikoloj": 5130,
      "çöktü": 5131,
      "karakolda": 5132,
      "tarafından": 5133,
      "sırtında": 5134,
      "gururlu": 5135,
      "hırsız": 5136,
      "kesilmişti": 5137,
      "kutsal": 5138,
      "Geçenlerde": 5139,
      "Sırt": 5140,
      "sandığın": 5141,
      "beğenmiş": 5142,
      "tıraş": 5143,
      "adresini": 5144,
      "sekreter": 5145,
      "parçası": 5146,
      "sahibinin": 5147,
      "düşündüğüm": 5148,
      "yastığa": 5149,
      "Meyhan": 5150,
      "memuru": 5151,
      "hıçkır": 5152,
      "Adası": 5153,
      "Varsın": 5154,
      "yavru": 5155,
      "mesle": 5156,
      "gömlek": 5157,
      "sarsıla": 5158,
      "hastaneye": 5159,
      "çöküp": 5160,
      "lokma": 5161,
      "dedikodu": 5162,
      "Lippevehzel": 5163,
      "!…": 5164,
      "Açık": 5165,
      "Boş": 5166,
      "Ez": 5167,
      "Filip": 5168,
      "Kaz": 5169,
      "Kesin": 5170,
      "Li": 5171,
      "Papaz": 5172,
      "Ra": 5173,
      "Reç": 5174,
      "Sak": 5175,
      "Ses": 5176,
      "Sesi": 5177,
      "Sinir": 5178,
      "Ter": 5179,
      "Uy": 5180,
      "Yaşa": 5181,
      "Yanı": 5182,
      "aman": 5183,
      "bük": 5184,
      "cayı": 5185,
      "cümle": 5186,
      "efendi": 5187,
      "hın": 5188,
      "hor": 5189,
      "hil": 5190,
      "idi": 5191,
      "mın": 5192,
      "nen": 5193,
      "nde": 5194,
      "nda": 5195,
      "oh": 5196,
      "odan": 5197,
      "payı": 5198,
      "pala": 5199,
      "ris": 5200,
      "rana": 5201,
      "rünün": 5202,
      "vb": 5203,
      "çede": 5204,
      "ğünü": 5205,
      "ğuna": 5206,
      "İti": 5207,
      "İkin": 5208,
      "ıyla": 5209,
      "şkin": 5210,
      "inti": 5211,
      "artan": 5212,
      "diyorsun": 5213,
      "dest": 5214,
      "demeye": 5215,
      "değin": 5216,
      "mada": 5217,
      "maaşı": 5218,
      "yaman": 5219,
      "yayıl": 5220,
      "yasak": 5221,
      "yatıp": 5222,
      "lem": 5223,
      "lebilir": 5224,
      "kaşı": 5225,
      "kalıyor": 5226,
      "yorg": 5227,
      "yordun": 5228,
      "içmeye": 5229,
      "içip": 5230,
      "kikir": 5231,
      "iniyordu": 5232,
      "baban": 5233,
      "bakayım": 5234,
      "hab": 5235,
      "denilen": 5236,
      "ırız": 5237,
      "savuru": 5238,
      "mesinden": 5239,
      "cebi": 5240,
      "ceza": 5241,
      "tavan": 5242,
      "ram": 5243,
      "düpe": 5244,
      "ettir": 5245,
      "tutan": 5246,
      "tuza": 5247,
      "yeğ": 5248,
      "ruşin": 5249,
      "şeyle": 5250,
      "üzgar": 5251,
      "başından": 5252,
      "başınıza": 5253,
      "sanıyor": 5254,
      "sanıyorum": 5255,
      "kum": 5256,
      "kuy": 5257,
      "yanda": 5258,
      "yanak": 5259,
      "emeyen": 5260,
      "irken": 5261,
      "manevi": 5262,
      "gördünüz": 5263,
      "vermiştim": 5264,
      "kendileri": 5265,
      "çıkmak": 5266,
      "düşman": 5267,
      "düşüp": 5268,
      "dolaşıp": 5269,
      "dolaşıyor": 5270,
      "likler": 5271,
      "yığın": 5272,
      "inizde": 5273,
      "bakmamıştı": 5274,
      "bakınca": 5275,
      "geldin": 5276,
      "şuyordu": 5277,
      "şuydu": 5278,
      "düşünün": 5279,
      "düşünmüş": 5280,
      "düşünmeden": 5281,
      "cılız": 5282,
      "evinden": 5283,
      "muşlar": 5284,
      "anlama": 5285,
      "anlamıyorum": 5286,
      "anlamıştım": 5287,
      "oluyorsun": 5288,
      "olurum": 5289,
      "adalet": 5290,
      "yapış": 5291,
      "yapıp": 5292,
      "yapıyordu": 5293,
      "bilya": 5294,
      "bilseydi": 5295,
      "yerlerden": 5296,
      "dersiniz": 5297,
      "unuza": 5298,
      "çeker": 5299,
      "çekme": 5300,
      "çekiyordu": 5301,
      "çekiyor": 5302,
      "zalet": 5303,
      "sözcü": 5304,
      "sözleriniz": 5305,
      "ışır": 5306,
      "tüy": 5307,
      "gözüne": 5308,
      "duymamıştı": 5309,
      "kopar": 5310,
      "yüzyıl": 5311,
      "olmamıştı": 5312,
      "lenin": 5313,
      "lenen": 5314,
      "Biri": 5315,
      "onunun": 5316,
      "yararak": 5317,
      "yararı": 5318,
      "diklerine": 5319,
      "durmak": 5320,
      "reç": 5321,
      "olanı": 5322,
      "yumuş": 5323,
      "sürpr": 5324,
      "gitmesi": 5325,
      "mezdim": 5326,
      "laşılan": 5327,
      "hesab": 5328,
      "ınızın": 5329,
      "şeylerdi": 5330,
      "erika": 5331,
      "kapısını": 5332,
      "adamdır": 5333,
      "yakından": 5334,
      "yakışık": 5335,
      "sayılmaz": 5336,
      "bağırarak": 5337,
      "tertemiz": 5338,
      "köle": 5339,
      "ettiler": 5340,
      "amma": 5341,
      "Sizden": 5342,
      "Sizinle": 5343,
      "nedenler": 5344,
      "nedenlerle": 5345,
      "ağın": 5346,
      "ağlama": 5347,
      "hepsine": 5348,
      "eser": 5349,
      "esnaf": 5350,
      "söylerim": 5351,
      "gıcır": 5352,
      "iliyordu": 5353,
      "Anlaşılan": 5354,
      "inanır": 5355,
      "mızdan": 5356,
      "konuşarak": 5357,
      "konuşmanın": 5358,
      "düşüncelerimi": 5359,
      "param": 5360,
      "paraya": 5361,
      "ipini": 5362,
      "bırakmıştı": 5363,
      "bıraktığı": 5364,
      "çıkardığı": 5365,
      "oturun": 5366,
      "öğrenir": 5367,
      "olayım": 5368,
      "yetmez": 5369,
      "davrana": 5370,
      "hatırlat": 5371,
      "faiz": 5372,
      "adında": 5373,
      "kesinkes": 5374,
      "getire": 5375,
      "kaybe": 5376,
      "davrandı": 5377,
      "ülmesi": 5378,
      "burun": 5379,
      "gidiş": 5380,
      "bakışla": 5381,
      "suçsuz": 5382,
      "korkmuştu": 5383,
      "korktuğ": 5384,
      "gösteren": 5385,
      "göstermeye": 5386,
      "sağlam": 5387,
      "sağlamak": 5388,
      "çalışan": 5389,
      "olacaktır": 5390,
      "önemsiz": 5391,
      "kalacak": 5392,
      "fena": 5393,
      "leşmiş": 5394,
      "saçlarını": 5395,
      "fazlasıyla": 5396,
      "sordum": 5397,
      "İncil": 5398,
      "istersen": 5399,
      "tanıya": 5400,
      "döne": 5401,
      "veriyorum": 5402,
      "adımlarını": 5403,
      "ıssız": 5404,
      "tikten": 5405,
      "Duvar": 5406,
      "yapalım": 5407,
      "kahve": 5408,
      "ayakları": 5409,
      "götürür": 5410,
      "etmedi": 5411,
      "etmemişti": 5412,
      "Asıl": 5413,
      "Koca": 5414,
      "Baksana": 5415,
      "Bakıyorum": 5416,
      "ayağı": 5417,
      "çarpık": 5418,
      "bitti": 5419,
      "süzüyordu": 5420,
      "heyecanı": 5421,
      "çevresini": 5422,
      "Hatır": 5423,
      "ilerici": 5424,
      "masadan": 5425,
      "buluş": 5426,
      "tutuyordu": 5427,
      "tiril": 5428,
      "noktası": 5429,
      "arasındaki": 5430,
      "konuşmalar": 5431,
      "konuşmasını": 5432,
      "duvardan": 5433,
      "anlaşılmaz": 5434,
      "bağışlan": 5435,
      "çevirip": 5436,
      "düşünüyorum": 5437,
      "mektedir": 5438,
      "bizimle": 5439,
      "mahv": 5440,
      "larınıza": 5441,
      "etkisi": 5442,
      "arabaya": 5443,
      "bulunuyordu": 5444,
      "yazıcı": 5445,
      "yargıcı": 5446,
      "diriyordu": 5447,
      "telaşla": 5448,
      "telaşlan": 5449,
      "mutluluk": 5450,
      "Düşünün": 5451,
      "Evde": 5452,
      "titreyen": 5453,
      "ezilen": 5454,
      "yapıyorsunuz": 5455,
      "titrediğini": 5456,
      "anlaşılır": 5457,
      "akıllıca": 5458,
      "dayadı": 5459,
      "memurun": 5460,
      "bilinc": 5461,
      "bilinen": 5462,
      "Katil": 5463,
      "sevinçli": 5464,
      "yemeğe": 5465,
      "övün": 5466,
      "övgü": 5467,
      "sonsuzcasına": 5468,
      "kıvır": 5469,
      "Durun": 5470,
      "dille": 5471,
      "satın": 5472,
      "baltayla": 5473,
      "Yargı": 5474,
      "aldırış": 5475,
      "üzüntülü": 5476,
      "annemle": 5477,
      "tılmış": 5478,
      "öğre": 5479,
      "yabanıl": 5480,
      "şaşırttı": 5481,
      "görünüşü": 5482,
      "şişman": 5483,
      "bildirdi": 5484,
      "gördüğüm": 5485,
      "kolayca": 5486,
      "komo": 5487,
      "Bazı": 5488,
      "III": 5489,
      "peşin": 5490,
      "çılgın": 5491,
      "anlatacağım": 5492,
      "bekliyorum": 5493,
      "kararlılık": 5494,
      "avluya": 5495,
      "Amerika": 5496,
      "Merdivenlerden": 5497,
      "çökmüştü": 5498,
      "divanın": 5499,
      "hayalet": 5500,
      "bacakları": 5501,
      "bıktır": 5502,
      "çıngıra": 5503,
      "sabaha": 5504,
      "bitişik": 5505,
      "küçümse": 5506,
      "anımsadı": 5507,
      "teori": 5508,
      "uğruna": 5509,
      "özenle": 5510,
      "koşarak": 5511,
      "seslendi": 5512,
      "kocasını": 5513,
      "sanıyordum": 5514,
      "koridorda": 5515,
      "Gülüm": 5516,
      "gönüllü": 5517,
      "ifti": 5518,
      "öykü": 5519,
      "rehine": 5520,
      "Cinayet": 5521,
      "İzler": 5522,
      "denebilecek": 5523,
      "kumaştan": 5524,
      "ısrarla": 5525,
      "gerisingeri": 5526,
      "odamda": 5527,
      "Zahariç": 5528,
      "Sekret": 5529,
      "Yahudi": 5530,
      "uğursuz": 5531,
      "defter": 5532,
      "kibirli": 5533,
      "eşikte": 5534,
      "sandalyeye": 5535,
      "siyah": 5536,
      "hanımefendi": 5537,
      "şiddet": 5538,
      "Vahruşin": 5539,
      "canavar": 5540,
      "eksik": 5541,
      "gölge": 5542,
      "hınç": 5543,
      "İtiraf": 5544,
      "İkinci": 5545,
      "düpedüz": 5546,
      "![": 5547,
      "Af": 5548,
      "Aç": 5549,
      "Aya": 5550,
      "Be": 5551,
      "Ber": 5552,
      "Bit": 5553,
      "Di": 5554,
      "Dik": 5555,
      "Dön": 5556,
      "Far": 5557,
      "Ga": 5558,
      "Gerek": 5559,
      "Heye": 5560,
      "Hap": 5561,
      "Kır": 5562,
      "Kaç": 5563,
      "Mad": 5564,
      "Mut": 5565,
      "Oğ": 5566,
      "Oraya": 5567,
      "Pras": 5568,
      "Se": 5569,
      "Sol": 5570,
      "Sonu": 5571,
      "Tah": 5572,
      "Tut": 5573,
      "Tamam": 5574,
      "Utan": 5575,
      "Unut": 5576,
      "Vas": 5577,
      "Ye": 5578,
      "Yak": 5579,
      "Yedi": 5580,
      "Yirmi": 5581,
      "Yarım": 5582,
      "basına": 5583,
      "beyi": 5584,
      "cını": 5585,
      "cir": 5586,
      "dara": 5587,
      "dolan": 5588,
      "ege": 5589,
      "fat": 5590,
      "frak": 5591,
      "ganda": 5592,
      "huyu": 5593,
      "ipek": 5594,
      "kre": 5595,
      "künü": 5596,
      "lması": 5597,
      "og": 5598,
      "oca": 5599,
      "pu": 5600,
      "pak": 5601,
      "plan": 5602,
      "pos": 5603,
      "retti": 5604,
      "rüzgar": 5605,
      "süzer": 5606,
      "serin": 5607,
      "ton": 5608,
      "tmek": 5609,
      "teri": 5610,
      "uyar": 5611,
      "vor": 5612,
      "vak": 5613,
      "vvet": 5614,
      "vah": 5615,
      "yiz": 5616,
      "yüt": 5617,
      "ydim": 5618,
      "çey": 5619,
      "çat": 5620,
      "ümü": 5621,
      "şak": 5622,
      "”.": 5623,
      "…[": 5624,
      "ﬂık": 5625,
      "inkâr": 5626,
      "anlarda": 5627,
      "arlar": 5628,
      "arayıp": 5629,
      "erkek": 5630,
      "deyip": 5631,
      "daş": 5632,
      "dayı": 5633,
      "davi": 5634,
      "masın": 5635,
      "mamalı": 5636,
      "maştır": 5637,
      "makale": 5638,
      "yakala": 5639,
      "leti": 5640,
      "lemek": 5641,
      "leyip": 5642,
      "kab": 5643,
      "kas": 5644,
      "kamaştır": 5645,
      "olmanın": 5646,
      "yorul": 5647,
      "ekme": 5648,
      "lime": 5649,
      "liyorum": 5650,
      "list": 5651,
      "ünlü": 5652,
      "miyle": 5653,
      "miser": 5654,
      "kireç": 5655,
      "batıl": 5656,
      "tiler": 5657,
      "ovski": 5658,
      "mıydınız": 5659,
      "giyi": 5660,
      "siye": 5661,
      "sağır": 5662,
      "cez": 5663,
      "cedir": 5664,
      "tabak": 5665,
      "tavu": 5666,
      "racağım": 5667,
      "eldi": 5668,
      "elle": 5669,
      "etmeyi": 5670,
      "ettin": 5671,
      "tuk": 5672,
      "muc": 5673,
      "muyorum": 5674,
      "muhakkak": 5675,
      "teğmen": 5676,
      "tedavi": 5677,
      "yem": 5678,
      "unutup": 5679,
      "ılcım": 5680,
      "aylık": 5681,
      "aykırı": 5682,
      "mişsiniz": 5683,
      "ınıp": 5684,
      "gecik": 5685,
      "başlaya": 5686,
      "başlayarak": 5687,
      "algın": 5688,
      "kup": 5689,
      "yanlarına": 5690,
      "yangın": 5691,
      "yanıt": 5692,
      "işine": 5693,
      "işinde": 5694,
      "amacım": 5695,
      "gördün": 5696,
      "görmüyor": 5697,
      "vermesi": 5698,
      "vermem": 5699,
      "vermeden": 5700,
      "verilmiş": 5701,
      "atan": 5702,
      "nala": 5703,
      "düşler": 5704,
      "çağ": 5705,
      "çamur": 5706,
      "şağı": 5707,
      "araştır": 5708,
      "dedik": 5709,
      "bakır": 5710,
      "bakım": 5711,
      "gelmesi": 5712,
      "gelmemişti": 5713,
      "şuraya": 5714,
      "düşünecek": 5715,
      "düşünüp": 5716,
      "düşüncen": 5717,
      "yiyip": 5718,
      "ilmi": 5719,
      "değilmiş": 5720,
      "evlerine": 5721,
      "anlayış": 5722,
      "söylev": 5723,
      "söylediğim": 5724,
      "söyleyerek": 5725,
      "oluk": 5726,
      "oluyorum": 5727,
      "yapıyorum": 5728,
      "bildiğini": 5729,
      "gülerek": 5730,
      "cektir": 5731,
      "çekine": 5732,
      "çekmişti": 5733,
      "çekerek": 5734,
      "kalmaz": 5735,
      "kaldığını": 5736,
      "kalmamış": 5737,
      "dırlar": 5738,
      "kapa": 5739,
      "kaplı": 5740,
      "kaptığı": 5741,
      "kaplayan": 5742,
      "kapadı": 5743,
      "sözde": 5744,
      "duyduğ": 5745,
      "duymak": 5746,
      "duyduğum": 5747,
      "günün": 5748,
      "koğu": 5749,
      "yüzlü": 5750,
      "olmamış": 5751,
      "geçmeden": 5752,
      "geçici": 5753,
      "sende": 5754,
      "sormuştu": 5755,
      "Birinci": 5756,
      "kızım": 5757,
      "kızının": 5758,
      "yarattığı": 5759,
      "insanca": 5760,
      "insanlardan": 5761,
      "tıklarında": 5762,
      "dursun": 5763,
      "Bense": 5764,
      "sızlığa": 5765,
      "rest": 5766,
      "yudum": 5767,
      "uzatarak": 5768,
      "ikide": 5769,
      "ikisinin": 5770,
      "istemi": 5771,
      "adamsınız": 5772,
      "dinin": 5773,
      "döndür": 5774,
      "saymaya": 5775,
      "odaydı": 5776,
      "paranın": 5777,
      "halkı": 5778,
      "açmak": 5779,
      "kaçmak": 5780,
      "büyüt": 5781,
      "yazıyor": 5782,
      "müşüm": 5783,
      "girerken": 5784,
      "canlandı": 5785,
      "nedenini": 5786,
      "kimden": 5787,
      "kardeşinize": 5788,
      "mizden": 5789,
      "görüşe": 5790,
      "ilir": 5791,
      "sıktı": 5792,
      "sevdiğini": 5793,
      "lamasına": 5794,
      "çeliş": 5795,
      "olursak": 5796,
      "ayırmadan": 5797,
      "yattı": 5798,
      "bırakı": 5799,
      "bizde": 5800,
      "sınıf": 5801,
      "yolunu": 5802,
      "düşündükten": 5803,
      "Herkesin": 5804,
      "yaşay": 5805,
      "layık": 5806,
      "bunlarla": 5807,
      "okuya": 5808,
      "okuduğu": 5809,
      "sallayarak": 5810,
      "kurban": 5811,
      "kurtara": 5812,
      "general": 5813,
      "oturmuştu": 5814,
      "öğrenince": 5815,
      "olaylar": 5816,
      "toplantı": 5817,
      "luktan": 5818,
      "Şurada": 5819,
      "hatırlıyordu": 5820,
      "özelliği": 5821,
      "Altı": 5822,
      "arkası": 5823,
      "hakaret": 5824,
      "oğl": 5825,
      "çocuksu": 5826,
      "çocuklarını": 5827,
      "geleceğin": 5828,
      "getirdim": 5829,
      "aşağıda": 5830,
      "gideyim": 5831,
      "eğilim": 5832,
      "gizini": 5833,
      "serzen": 5834,
      "gidiyorsunuz": 5835,
      "gidiyorsun": 5836,
      "bakışlarında": 5837,
      "bakışlarından": 5838,
      "zorlama": 5839,
      "Böylesine": 5840,
      "görünen": 5841,
      "Avlu": 5842,
      "cağın": 5843,
      "cağınızı": 5844,
      "kesilmiş": 5845,
      "leştir": 5846,
      "saçlı": 5847,
      "farklı": 5848,
      "benziyor": 5849,
      "İnanın": 5850,
      "isterse": 5851,
      "isterim": 5852,
      "istercesine": 5853,
      "duygulu": 5854,
      "duyguyla": 5855,
      "barış": 5856,
      "üşü": 5857,
      "sinirlen": 5858,
      "ağırbaşlı": 5859,
      "bununla": 5860,
      "duyulan": 5861,
      "uğraya": 5862,
      "öldürmüş": 5863,
      "devr": 5864,
      "oturuyorum": 5865,
      "bugünlerde": 5866,
      "uzakta": 5867,
      "uzaklaştı": 5868,
      "bekleyen": 5869,
      "utanmış": 5870,
      "etmesini": 5871,
      "durumdaydı": 5872,
      "uyuya": 5873,
      "lerimin": 5874,
      "değerli": 5875,
      "gelirken": 5876,
      "gelirse": 5877,
      "kâğıda": 5878,
      "keke": 5879,
      "kekeme": 5880,
      "birbirini": 5881,
      "uslu": 5882,
      "Elbi": 5883,
      "duvarda": 5884,
      "paganda": 5885,
      "dokunu": 5886,
      "dokuz": 5887,
      "ceğinizi": 5888,
      "söylenen": 5889,
      "meraklı": 5890,
      "soluğu": 5891,
      "yarabbi": 5892,
      "meyhaneden": 5893,
      "ardında": 5894,
      "gelmişlerdi": 5895,
      "sertçe": 5896,
      "malıydı": 5897,
      "hayatının": 5898,
      "arabacı": 5899,
      "sorununu": 5900,
      "ayrıca": 5901,
      "Bakale": 5902,
      "Karl": 5903,
      "insanlardır": 5904,
      "kovya": 5905,
      "lenip": 5906,
      "sıkıcı": 5907,
      "ateşler": 5908,
      "Akıl": 5909,
      "ayrıntılı": 5910,
      "zeh": 5911,
      "hakkım": 5912,
      "diriyor": 5913,
      "meliydi": 5914,
      "zorundayım": 5915,
      "öksürük": 5916,
      "gelişinde": 5917,
      "Düşünce": 5918,
      "larımdan": 5919,
      "Görüyor": 5920,
      "hayaller": 5921,
      "Başını": 5922,
      "yaşaya": 5923,
      "yaşadığı": 5924,
      "verdiğimi": 5925,
      "koptu": 5926,
      "aileden": 5927,
      "kişiyi": 5928,
      "deliller": 5929,
      "ışığa": 5930,
      "kardeşime": 5931,
      "kurtul": 5932,
      "kurtula": 5933,
      "cebinden": 5934,
      "yemeği": 5935,
      "dolaşırken": 5936,
      "söyledikten": 5937,
      "kıvılcım": 5938,
      "tatsız": 5939,
      "taşıyan": 5940,
      "ağaç": 5941,
      "vuruş": 5942,
      "bitenlerin": 5943,
      "kaşık": 5944,
      "genellikle": 5945,
      "borçlu": 5946,
      "uzağa": 5947,
      "kâğıtları": 5948,
      "Odadaki": 5949,
      "uykuya": 5950,
      "önemi": 5951,
      "annemin": 5952,
      "kıskan": 5953,
      "uzanan": 5954,
      "soktu": 5955,
      "öğle": 5956,
      "dikilmiş": 5957,
      "leyecek": 5958,
      "gördüğünü": 5959,
      "Tümüyle": 5960,
      "propaganda": 5961,
      "ödeye": 5962,
      "anahtarı": 5963,
      "komün": 5964,
      "hop": 5965,
      "hoşuma": 5966,
      "çorba": 5967,
      "annenin": 5968,
      "gerçekleştir": 5969,
      "çıkacak": 5970,
      "pencerenin": 5971,
      "yurt": 5972,
      "boynuna": 5973,
      "paltosunun": 5974,
      "ceplerini": 5975,
      "tanışmak": 5976,
      "yapıyorsun": 5977,
      "sofra": 5978,
      "yuvarlak": 5979,
      "koşullar": 5980,
      "millet": 5981,
      "konuşacak": 5982,
      "becere": 5983,
      "kızcağızın": 5984,
      "göstereceğim": 5985,
      "hizmetçi": 5986,
      "elimden": 5987,
      "Kalabalıktan": 5988,
      "çocuğun": 5989,
      "Kötü": 5990,
      "yataktan": 5991,
      "tepeden": 5992,
      "küçümsey": 5993,
      "öğreni": 5994,
      "çekildi": 5995,
      "konuştuğu": 5996,
      "kaygılandır": 5997,
      "burnu": 5998,
      "iskemlesinden": 5999,
      "Fransızca": 6000,
      "bölmenin": 6001,
      "kibarca": 6002,
      "alamadı": 6003,
      "öldüre": 6004,
      "pişmanlık": 6005,
      "Aynı": 6006,
      "dibinde": 6007,
      "ovuşturu": 6008,
      "zorunlu": 6009,
      "asiy": 6010,
      "aralıksız": 6011,
      "sınırsız": 6012,
      "Defol": 6013,
      "allahi": 6014,
      "Bağışlayın": 6015,
      "Çevresine": 6016,
      "becerikli": 6017,
      "buyruk": 6018,
      "yardımcısı": 6019,
      "Orta": 6020,
      "tablo": 6021,
      "senlibenli": 6022,
      "kıpırda": 6023,
      "kavuşturmuş": 6024,
      "Afanasiy": 6025,
      "Pavlovna": 6026,
      "Yolda": 6027,
      "bağrış": 6028,
      "sebep": 6029,
      "Bakışları": 6030,
      "Köprüsü": 6031,
      "Ertesi": 6032,
      "acınası": 6033,
      "koşuluyla": 6034,
      "hukuk": 6035,
      "Sekreter": 6036,
      "Galiba": 6037,
      "Praskovya": 6038,
      "egemen": 6039,
      "süzerek": 6040,
      "Bakaleyev": 6041,
      "?.": 6042,
      "?’": 6043,
      "At": 6044,
      "Canım": 6045,
      "Dir": 6046,
      "Dev": 6047,
      "Dalgın": 6048,
      "Eve": 6049,
      "Elim": 6050,
      "Epey": 6051,
      "Geli": 6052,
      "Hır": 6053,
      "Haklı": 6054,
      "Kara": 6055,
      "Kili": 6056,
      "Lazar": 6057,
      "Mi": 6058,
      "Mos": 6059,
      "Mısır": 6060,
      "Neymiş": 6061,
      "Oku": 6062,
      "Olacak": 6063,
      "Pala": 6064,
      "Re": 6065,
      "Sür": 6066,
      "Sus": 6067,
      "Sch": 6068,
      "Tit": 6069,
      "Yu": 6070,
      "Yat": 6071,
      "af": 6072,
      "ağrı": 6073,
      "cına": 6074,
      "cenin": 6075,
      "dini": 6076,
      "ebar": 6077,
      "ezi": 6078,
      "fel": 6079,
      "hek": 6080,
      "huz": 6081,
      "ima": 6082,
      "ifa": 6083,
      "ju": 6084,
      "keyi": 6085,
      "no": 6086,
      "neyle": 6087,
      "neyin": 6088,
      "pla": 6089,
      "pik": 6090,
      "pat": 6091,
      "pani": 6092,
      "süp": 6093,
      "sünüz": 6094,
      "tla": 6095,
      "tün": 6096,
      "tey": 6097,
      "tren": 6098,
      "uyla": 6099,
      "utanı": 6100,
      "Çor": 6101,
      "Çebar": 6102,
      "Öz": 6103,
      "çer": 6104,
      "çra": 6105,
      "çes": 6106,
      "çattı": 6107,
      "çengel": 6108,
      "öç": 6109,
      "öden": 6110,
      "ücü": 6111,
      "ıla": 6112,
      "Şey": 6113,
      "Şap": 6114,
      "şal": 6115,
      "şem": 6116,
      "şama": 6117,
      "inen": 6118,
      "inmiş": 6119,
      "anında": 6120,
      "arası": 6121,
      "aralan": 6122,
      "bitiri": 6123,
      "del": 6124,
      "dele": 6125,
      "dayak": 6126,
      "mate": 6127,
      "maye": 6128,
      "malara": 6129,
      "matik": 6130,
      "yaza": 6131,
      "yaşıyordu": 6132,
      "ori": 6133,
      "orda": 6134,
      "ortak": 6135,
      "ormal": 6136,
      "uncu": 6137,
      "dudağı": 6138,
      "kabu": 6139,
      "kalı": 6140,
      "lardaki": 6141,
      "dığına": 6142,
      "akan": 6143,
      "akla": 6144,
      "eyiniz": 6145,
      "tısı": 6146,
      "baz": 6147,
      "batak": 6148,
      "halı": 6149,
      "deni": 6150,
      "denen": 6151,
      "giydi": 6152,
      "siste": 6153,
      "saman": 6154,
      "saﬂı": 6155,
      "meğer": 6156,
      "memesi": 6157,
      "melerine": 6158,
      "mesinin": 6159,
      "taç": 6160,
      "tali": 6161,
      "ral": 6162,
      "etmem": 6163,
      "etmeden": 6164,
      "etmiyor": 6165,
      "sema": 6166,
      "seler": 6167,
      "mumu": 6168,
      "tef": 6169,
      "tep": 6170,
      "teş": 6171,
      "imin": 6172,
      "imden": 6173,
      "yele": 6174,
      "yelek": 6175,
      "nesi": 6176,
      "ıldığını": 6177,
      "mışsın": 6178,
      "içindir": 6179,
      "aydı": 6180,
      "ürüz": 6181,
      "cahil": 6182,
      "geceyi": 6183,
      "başlıyor": 6184,
      "başımda": 6185,
      "kule": 6186,
      "kuvvet": 6187,
      "yanlı": 6188,
      "yandaki": 6189,
      "iştah": 6190,
      "sizde": 6191,
      "mantık": 6192,
      "verst": 6193,
      "verdiğim": 6194,
      "verdiniz": 6195,
      "vermeyi": 6196,
      "isine": 6197,
      "isiniz": 6198,
      "özveri": 6199,
      "atar": 6200,
      "attır": 6201,
      "vara": 6202,
      "varana": 6203,
      "varlığıyla": 6204,
      "çıkı": 6205,
      "çıkıyor": 6206,
      "çıktım": 6207,
      "çıkmadı": 6208,
      "çıkınca": 6209,
      "düşkün": 6210,
      "düşkünü": 6211,
      "dolam": 6212,
      "doçka": 6213,
      "izliyor": 6214,
      "çap": 6215,
      "lanları": 6216,
      "sinek": 6217,
      "since": 6218,
      "gerili": 6219,
      "dediğini": 6220,
      "şup": 6221,
      "iller": 6222,
      "ilyev": 6223,
      "mıştık": 6224,
      "olaya": 6225,
      "söylememiş": 6226,
      "söyleyen": 6227,
      "yapması": 6228,
      "yaprak": 6229,
      "yaptınız": 6230,
      "yaptıkları": 6231,
      "bildin": 6232,
      "sıçra": 6233,
      "güler": 6234,
      "yerdi": 6235,
      "dersin": 6236,
      "konuları": 6237,
      "konusunu": 6238,
      "konulmaz": 6239,
      "unuzda": 6240,
      "kalkar": 6241,
      "kapladı": 6242,
      "sözlerden": 6243,
      "küf": 6244,
      "gözlerinden": 6245,
      "duyma": 6246,
      "duyduğunu": 6247,
      "beli": 6248,
      "yüzbaşım": 6249,
      "olmaması": 6250,
      "olmamasına": 6251,
      "müyorum": 6252,
      "yokken": 6253,
      "sormaya": 6254,
      "dire": 6255,
      "kızıl": 6256,
      "doğrulup": 6257,
      "kendin": 6258,
      "insanlığın": 6259,
      "zamana": 6260,
      "zamanında": 6261,
      "zamankinden": 6262,
      "durduğu": 6263,
      "sızdı": 6264,
      "rezalet": 6265,
      "gitmem": 6266,
      "gitmeyecek": 6267,
      "laşan": 6268,
      "laşma": 6269,
      "edememişti": 6270,
      "boşa": 6271,
      "istemişti": 6272,
      "istediğiniz": 6273,
      "başkasına": 6274,
      "başkalarına": 6275,
      "adamsın": 6276,
      "açıklamaya": 6277,
      "andal": 6278,
      "dönen": 6279,
      "dönmeye": 6280,
      "dönmez": 6281,
      "meydi": 6282,
      "meydan": 6283,
      "odasını": 6284,
      "bağırış": 6285,
      "sarılmış": 6286,
      "sararmış": 6287,
      "terek": 6288,
      "açıl": 6289,
      "giren": 6290,
      "ediyorsun": 6291,
      "edilir": 6292,
      "aşık": 6293,
      "canın": 6294,
      "acıya": 6295,
      "ağladı": 6296,
      "şimdiki": 6297,
      "şimdiden": 6298,
      "kardeşin": 6299,
      "tastik": 6300,
      "Katya": 6301,
      "görüp": 6302,
      "ölmüş": 6303,
      "birilerinin": 6304,
      "sıkılmıştı": 6305,
      "sevme": 6306,
      "inanmayın": 6307,
      "lamamış": 6308,
      "düşüncesini": 6309,
      "şaşkına": 6310,
      "ilet": 6311,
      "hastas": 6312,
      "kuşak": 6313,
      "çıkarmıştı": 6314,
      "Herhangi": 6315,
      "yaşlar": 6316,
      "yaşamaya": 6317,
      "birazcık": 6318,
      "salladı": 6319,
      "öğrenmişti": 6320,
      "olayların": 6321,
      "yetle": 6322,
      "yılında": 6323,
      "favor": 6324,
      "ederken": 6325,
      "edersiniz": 6326,
      "ecekti": 6327,
      "saattir": 6328,
      "getirmek": 6329,
      "getirdiği": 6330,
      "bancı": 6331,
      "kaynağı": 6332,
      "lırcasına": 6333,
      "lığınız": 6334,
      "sermaye": 6335,
      "Marta": 6336,
      "zorla": 6337,
      "eşlik": 6338,
      "gösterir": 6339,
      "sağdaki": 6340,
      "sağlayacak": 6341,
      "görünmeye": 6342,
      "görünmüyordu": 6343,
      "tuhaftı": 6344,
      "sorusuna": 6345,
      "eğdi": 6346,
      "basa": 6347,
      "baskı": 6348,
      "üphe": 6349,
      "kalakaldı": 6350,
      "güçlük": 6351,
      "başlamışlardı": 6352,
      "baktım": 6353,
      "baktığını": 6354,
      "Seninle": 6355,
      "anlattım": 6356,
      "farkına": 6357,
      "benze": 6358,
      "benzemeyen": 6359,
      "şaşırtan": 6360,
      "kaldırımda": 6361,
      "tanıt": 6362,
      "tanıdık": 6363,
      "dövü": 6364,
      "süresince": 6365,
      "kafasına": 6366,
      "kafasını": 6367,
      "dayana": 6368,
      "dayanarak": 6369,
      "saplantı": 6370,
      "Yabancı": 6371,
      "olmuştur": 6372,
      "öldürür": 6373,
      "öldürdüğünü": 6374,
      "vali": 6375,
      "fırsatı": 6376,
      "harcı": 6377,
      "madılar": 6378,
      "geçirmeye": 6379,
      "geçirip": 6380,
      "karımı": 6381,
      "karısına": 6382,
      "rasını": 6383,
      "gülmek": 6384,
      "dinlemişti": 6385,
      "yapacağım": 6386,
      "bakacak": 6387,
      "aklın": 6388,
      "geceleri": 6389,
      "çağıra": 6390,
      "sarhoşun": 6391,
      "beklediği": 6392,
      "beklemediği": 6393,
      "Komiser": 6394,
      "bera": 6395,
      "berbat": 6396,
      "metli": 6397,
      "uyur": 6398,
      "sahibe": 6399,
      "aptallık": 6400,
      "sevindi": 6401,
      "saygılı": 6402,
      "çarpıldı": 6403,
      "liğiyle": 6404,
      "ğınızda": 6405,
      "dairenin": 6406,
      "geçenleri": 6407,
      "heyecandan": 6408,
      "heyecanlandır": 6409,
      "Bunlardan": 6410,
      "mıyorsam": 6411,
      "rop": 6412,
      "unutma": 6413,
      "unutmamak": 6414,
      "itiraz": 6415,
      "birbirinden": 6416,
      "vurgu": 6417,
      "davranışları": 6418,
      "Doğrusunu": 6419,
      "gerektiğine": 6420,
      "Deli": 6421,
      "Dünya": 6422,
      "çalışı": 6423,
      "ateşi": 6424,
      "dörtnala": 6425,
      "kişiler": 6426,
      "kişilik": 6427,
      "çevirdi": 6428,
      "söylene": 6429,
      "soluyordu": 6430,
      "yaradı": 6431,
      "düşünüyorsunuz": 6432,
      "meyhaneye": 6433,
      "göndere": 6434,
      "sarılı": 6435,
      "muzu": 6436,
      "yaparken": 6437,
      "yatıyordu": 6438,
      "mahsus": 6439,
      "baltasını": 6440,
      "başındaki": 6441,
      "selans": 6442,
      "hayatta": 6443,
      "hayatını": 6444,
      "luğundan": 6445,
      "bulunur": 6446,
      "dışarıdan": 6447,
      "Hepsini": 6448,
      "Karar": 6449,
      "lenimi": 6450,
      "noktaya": 6451,
      "sabahtan": 6452,
      "bıçak": 6453,
      "sustular": 6454,
      "düğüm": 6455,
      "işlediği": 6456,
      "görünüyor": 6457,
      "öksür": 6458,
      "madığım": 6459,
      "geliştir": 6460,
      "Düşünü": 6461,
      "Evden": 6462,
      "ruhunda": 6463,
      "Görü": 6464,
      "Söyleyin": 6465,
      "beyn": 6466,
      "bozul": 6467,
      "şturarak": 6468,
      "epeyce": 6469,
      "Bizi": 6470,
      "kanıtlar": 6471,
      "ziyareti": 6472,
      "arkadaşına": 6473,
      "oracıkta": 6474,
      "baylar": 6475,
      "baygın": 6476,
      "karanlıkta": 6477,
      "konusuna": 6478,
      "kopuk": 6479,
      "ettiğimi": 6480,
      "fısılda": 6481,
      "dayalı": 6482,
      "dayamış": 6483,
      "dayayıp": 6484,
      "geçmişçesine": 6485,
      "ışığı": 6486,
      "kardeşiyle": 6487,
      "kurtulu": 6488,
      "kurtulmuş": 6489,
      "ölümü": 6490,
      "tehdi": 6491,
      "evlenmeye": 6492,
      "kocakarıyı": 6493,
      "bette": 6494,
      "bitirdi": 6495,
      "düzenli": 6496,
      "kıvran": 6497,
      "Durmadan": 6498,
      "Nedense": 6499,
      "sakindi": 6500,
      "kazanmış": 6501,
      "evliliği": 6502,
      "koşturup": 6503,
      "Deminki": 6504,
      "niyetleri": 6505,
      "Odada": 6506,
      "Odasına": 6507,
      "ölçülü": 6508,
      "kilitle": 6509,
      "havada": 6510,
      "dayanamaz": 6511,
      "Kocakarının": 6512,
      "gürültülü": 6513,
      "yitirmiş": 6514,
      "Çocuklar": 6515,
      "homur": 6516,
      "yacaksın": 6517,
      "kucakladı": 6518,
      "kucaklayıp": 6519,
      "Küçücük": 6520,
      "umudu": 6521,
      "vazgeçti": 6522,
      "tanıklık": 6523,
      "şaşılası": 6524,
      "köprünün": 6525,
      "boynuz": 6526,
      "Meryem": 6527,
      "kentte": 6528,
      "getiril": 6529,
      "getirip": 6530,
      "kaygılı": 6531,
      "sandalyesinden": 6532,
      "Merdivenlerde": 6533,
      "esir": 6534,
      "hayali": 6535,
      "bilmiyorsunuz": 6536,
      "dövüş": 6537,
      "ilerleme": 6538,
      "çamaşırlarını": 6539,
      "şereﬁne": 6540,
      "bacaklarını": 6541,
      "gücünü": 6542,
      "sözcükleri": 6543,
      "zamanımız": 6544,
      "görülüyor": 6545,
      "nişanlısının": 6546,
      "fantastik": 6547,
      "Öldür": 6548,
      "bileceğinizi": 6549,
      "sırtına": 6550,
      "çıngırak": 6551,
      "çıngırağın": 6552,
      "giysiler": 6553,
      "alıcı": 6554,
      "mamacasına": 6555,
      "tepesine": 6556,
      "anahtarları": 6557,
      "olasılıkla": 6558,
      "184": 6559,
      "186": 6560,
      "uğrarım": 6561,
      "öğret": 6562,
      "erdemli": 6563,
      "iriyarı": 6564,
      "elinizde": 6565,
      "küpeleri": 6566,
      "parmaklarını": 6567,
      "sövüp": 6568,
      "Bari": 6569,
      "Korkunç": 6570,
      "Masanın": 6571,
      "gezdir": 6572,
      "irkildi": 6573,
      "rehini": 6574,
      "tasarladığı": 6575,
      "zorunluluk": 6576,
      "süslü": 6577,
      "abla": 6578,
      "diplo": 6579,
      "tükenmez": 6580,
      "uzaklaştırmak": 6581,
      "Pencere": 6582,
      "hapishane": 6583,
      "izlenim": 6584,
      "ihtiyacım": 6585,
      "milyonlarca": 6586,
      "Baltayı": 6587,
      "nerelerde": 6588,
      "sokup": 6589,
      "giyimli": 6590,
      "pantolon": 6591,
      "Zamanı": 6592,
      "yapmacık": 6593,
      "belasını": 6594,
      "Mektu": 6595,
      "dikilip": 6596,
      "seferinde": 6597,
      "sosyet": 6598,
      "humma": 6599,
      "dalgası": 6600,
      "çirkef": 6601,
      "Meyhanenin": 6602,
      "Lidoçka": 6603,
      "Sakin": 6604,
      "palavra": 6605,
      "tuzağa": 6606,
      "kuyru": 6607,
      "Gülümse": 6608,
      "iftira": 6609,
      "Dikkat": 6610,
      "Fark": 6611,
      "Vasilyev": 6612,
      "posta": 6613,
      "eldiven": 6614,
      "kupkuru": 6615,
      "kekeledi": 6616,
      "Moskova": 6617,
      "Schiller": 6618,
      "felse": 6619,
      "hekim": 6620,
      "Çebarov": 6621,
      "çeskaya": 6622,
      "Şapka": 6623,
      "dolambaç": 6624,
      ",’": 6625,
      "Alay": 6626,
      "Aşağı": 6627,
      "Bey": 6628,
      "Bağır": 6629,
      "Bölüm": 6630,
      "Dünkü": 6631,
      "Dayan": 6632,
      "Efendi": 6633,
      "Geri": 6634,
      "Güne": 6635,
      "Güç": 6636,
      "Gele": 6637,
      "Gene": 6638,
      "Hak": 6639,
      "Hâlâ": 6640,
      "IV": 6641,
      "Karı": 6642,
      "Kris": 6643,
      "Mo": 6644,
      "Neyin": 6645,
      "Olur": 6646,
      "Oldu": 6647,
      "Peri": 6648,
      "Puş": 6649,
      "Rah": 6650,
      "Ser": 6651,
      "Sah": 6652,
      "Soy": 6653,
      "Türk": 6654,
      "Uyu": 6655,
      "Vallahi": 6656,
      "adi": 6657,
      "ailen": 6658,
      "bın": 6659,
      "bara": 6660,
      "binde": 6661,
      "drum": 6662,
      "fal": 6663,
      "gru": 6664,
      "gul": 6665,
      "hüzün": 6666,
      "hırıl": 6667,
      "iyan": 6668,
      "kola": 6669,
      "kinin": 6670,
      "kere": 6671,
      "mde": 6672,
      "mdan": 6673,
      "ndan": 6674,
      "normal": 6675,
      "odi": 6676,
      "po": 6677,
      "pır": 6678,
      "rev": 6679,
      "rüt": 6680,
      "süt": 6681,
      "sünü": 6682,
      "süne": 6683,
      "ts": 6684,
      "tmaya": 6685,
      "teydi": 6686,
      "uma": 6687,
      "umur": 6688,
      "vo": 6689,
      "vey": 6690,
      "vim": 6691,
      "val": 6692,
      "vri": 6693,
      "vasi": 6694,
      "ydiniz": 6695,
      "zik": 6696,
      "zına": 6697,
      "zgah": 6698,
      "Çıl": 6699,
      "çin": 6700,
      "çik": 6701,
      "çöp": 6702,
      "çatarak": 6703,
      "öbek": 6704,
      "ölecek": 6705,
      "üme": 6706,
      "ğar": 6707,
      "Şunu": 6708,
      "şip": 6709,
      "şgul": 6710,
      "……": 6711,
      "aran": 6712,
      "aramaya": 6713,
      "artıyordu": 6714,
      "enler": 6715,
      "biye": 6716,
      "bitim": 6717,
      "ınmış": 6718,
      "demiş": 6719,
      "deyin": 6720,
      "dağ": 6721,
      "dahi": 6722,
      "masal": 6723,
      "mağın": 6724,
      "madem": 6725,
      "mamasına": 6726,
      "yakı": 6727,
      "yalım": 6728,
      "ortam": 6729,
      "oryev": 6730,
      "lamaktan": 6731,
      "dut": 6732,
      "kalarak": 6733,
      "olsanız": 6734,
      "olumlu": 6735,
      "olsaydınız": 6736,
      "lardo": 6737,
      "yorsa": 6738,
      "yoruz": 6739,
      "yorgan": 6740,
      "onay": 6741,
      "aket": 6742,
      "tıka": 6743,
      "tılı": 6744,
      "midir": 6745,
      "içti": 6746,
      "mıha": 6747,
      "mıdır": 6748,
      "mıydım": 6749,
      "deney": 6750,
      "denge": 6751,
      "deneme": 6752,
      "gidin": 6753,
      "sivri": 6754,
      "sade": 6755,
      "sakal": 6756,
      "satır": 6757,
      "mev": 6758,
      "meşgul": 6759,
      "tay": 6760,
      "eleni": 6761,
      "ellerinde": 6762,
      "ğiyle": 6763,
      "etmiyordu": 6764,
      "okul": 6765,
      "kentin": 6766,
      "seﬁl": 6767,
      "muh": 6768,
      "tezgah": 6769,
      "neşeyle": 6770,
      "ruyordu": 6771,
      "rupa": 6772,
      "ıkoca": 6773,
      "ılmasına": 6774,
      "şeyde": 6775,
      "mıştınız": 6776,
      "cad": 6777,
      "başının": 6778,
      "başkaldır": 6779,
      "başlıyordu": 6780,
      "başvuru": 6781,
      "sanmayın": 6782,
      "alda": 6783,
      "aldığını": 6784,
      "allak": 6785,
      "alınca": 6786,
      "albay": 6787,
      "kararı": 6788,
      "karıkoca": 6789,
      "kudurmuş": 6790,
      "yanılmış": 6791,
      "kollarıyla": 6792,
      "işiniz": 6793,
      "irin": 6794,
      "irle": 6795,
      "sizdi": 6796,
      "görmesi": 6797,
      "görmemişti": 6798,
      "görkem": 6799,
      "görevi": 6800,
      "larımız": 6801,
      "keti": 6802,
      "kese": 6803,
      "kemik": 6804,
      "sulara": 6805,
      "verilen": 6806,
      "atkı": 6807,
      "atması": 6808,
      "varlık": 6809,
      "çıktıktan": 6810,
      "naya": 6811,
      "nağa": 6812,
      "düşmüştü": 6813,
      "doy": 6814,
      "dolay": 6815,
      "domuz": 6816,
      "izlenimi": 6817,
      "lüğe": 6818,
      "makine": 6819,
      "çağı": 6820,
      "lanarak": 6821,
      "lanmaya": 6822,
      "landığını": 6823,
      "kadından": 6824,
      "bakınıyordu": 6825,
      "gelmedi": 6826,
      "gelmesini": 6827,
      "geldiğimi": 6828,
      "şuk": 6829,
      "düşününce": 6830,
      "biliyorsun": 6831,
      "yiyecek": 6832,
      "ilmez": 6833,
      "evini": 6834,
      "evlerinde": 6835,
      "anlamış": 6836,
      "anladığı": 6837,
      "anlatım": 6838,
      "anlamamıştı": 6839,
      "olacağım": 6840,
      "söylemiyor": 6841,
      "söylediğiniz": 6842,
      "yapmayı": 6843,
      "yapamaz": 6844,
      "sıv": 6845,
      "derler": 6846,
      "ceksiniz": 6847,
      "çekilmiş": 6848,
      "çekici": 6849,
      "çekiştir": 6850,
      "kalkarak": 6851,
      "bulmaya": 6852,
      "bullak": 6853,
      "kapak": 6854,
      "kapkara": 6855,
      "tüyü": 6856,
      "gözdağı": 6857,
      "duyunca": 6858,
      "günleri": 6859,
      "gündelik": 6860,
      "koşar": 6861,
      "beden": 6862,
      "duruyorum": 6863,
      "yüze": 6864,
      "yüzün": 6865,
      "yüzünüz": 6866,
      "sundan": 6867,
      "müşa": 6868,
      "geçe": 6869,
      "geçmemişti": 6870,
      "lendi": 6871,
      "sora": 6872,
      "sormak": 6873,
      "soracak": 6874,
      "sorumlu": 6875,
      "Birtakım": 6876,
      "Birlikte": 6877,
      "tırnağa": 6878,
      "onunda": 6879,
      "kızdan": 6880,
      "kızları": 6881,
      "kızgın": 6882,
      "kadarını": 6883,
      "diğimiz": 6884,
      "insanlarla": 6885,
      "tıkana": 6886,
      "dikmişti": 6887,
      "zamandan": 6888,
      "vanın": 6889,
      "durmaya": 6890,
      "redin": 6891,
      "karşıladı": 6892,
      "karşılaya": 6893,
      "karşılığı": 6894,
      "karşılıklı": 6895,
      "nasılsa": 6896,
      "Petrovski": 6897,
      "yumur": 6898,
      "sürece": 6899,
      "ikimiz": 6900,
      "laşmak": 6901,
      "bom": 6902,
      "hesaba": 6903,
      "yüklü": 6904,
      "sırtı": 6905,
      "sıranın": 6906,
      "buralara": 6907,
      "buradaki": 6908,
      "dığımız": 6909,
      "isteğini": 6910,
      "istemediğini": 6911,
      "başkaca": 6912,
      "adamdan": 6913,
      "açıklığa": 6914,
      "açıklanması": 6915,
      "hiçbiri": 6916,
      "dinlen": 6917,
      "önceleri": 6918,
      "dönerken": 6919,
      "soyu": 6920,
      "sous": 6921,
      "odaların": 6922,
      "sark": 6923,
      "saray": 6924,
      "terzi": 6925,
      "terbiye": 6926,
      "kök": 6927,
      "köşeyi": 6928,
      "sövü": 6929,
      "halkın": 6930,
      "açmış": 6931,
      "açmıştı": 6932,
      "açılmış": 6933,
      "kaçtı": 6934,
      "ettiğiniz": 6935,
      "haneye": 6936,
      "girme": 6937,
      "asıyla": 6938,
      "edici": 6939,
      "aşkın": 6940,
      "ağlaya": 6941,
      "hepi": 6942,
      "hepsinin": 6943,
      "durumunda": 6944,
      "kardeşinizi": 6945,
      "kardeşinizin": 6946,
      "uldu": 6947,
      "Poroh": 6948,
      "tasvir": 6949,
      "görüyorsunuz": 6950,
      "ündeki": 6951,
      "büyüktü": 6952,
      "sıklam": 6953,
      "kadınlardan": 6954,
      "Anlıyorum": 6955,
      "konuşmuştu": 6956,
      "konuşmayı": 6957,
      "lamadan": 6958,
      "lamaları": 6959,
      "düşüncem": 6960,
      "olursunuz": 6961,
      "ümde": 6962,
      "ayırt": 6963,
      "yatar": 6964,
      "yattığı": 6965,
      "ipucu": 6966,
      "bırakmak": 6967,
      "bırakıyordu": 6968,
      "bizden": 6969,
      "keskin": 6970,
      "yaşan": 6971,
      "yaşayan": 6972,
      "layınca": 6973,
      "okuma": 6974,
      "okumuş": 6975,
      "okumuştum": 6976,
      "korkuya": 6977,
      "korkuyor": 6978,
      "korkusu": 6979,
      "sallaya": 6980,
      "kuşkulanıyor": 6981,
      "istiyormuş": 6982,
      "oturmaya": 6983,
      "öğrenc": 6984,
      "öğrenim": 6985,
      "üstünü": 6986,
      "olayları": 6987,
      "çevri": 6988,
      "kararlaştır": 6989,
      "toplamaya": 6990,
      "topluluk": 6991,
      "İşçi": 6992,
      "çivi": 6993,
      "seyrek": 6994,
      "seyretti": 6995,
      "yıllarda": 6996,
      "adınızı": 6997,
      "arkadan": 6998,
      "oğlan": 6999,
      "anlıyorsunuz": 7000,
      "çocukların": 7001,
      "ecektir": 7002,
      "geleceğ": 7003,
      "dalmış": 7004,
      "kaybet": 7005,
      "davranır": 7006,
      "ülür": 7007,
      "burju": 7008,
      "lırım": 7009,
      "serseri": 7010,
      "dereceden": 7011,
      "içeriden": 7012,
      "içerideki": 7013,
      "suçun": 7014,
      "suçlar": 7015,
      "göstermişti": 7016,
      "görünmüştü": 7017,
      "Avrupa": 7018,
      "soruyordu": 7019,
      "sorularla": 7020,
      "basarak": 7021,
      "güçten": 7022,
      "yürüyor": 7023,
      "niyeti": 7024,
      "annesine": 7025,
      "merdivenlerin": 7026,
      "anlatmak": 7027,
      "anlatsam": 7028,
      "benzeri": 7029,
      "işime": 7030,
      "atıyor": 7031,
      "İngi": 7032,
      "duyguları": 7033,
      "duygularını": 7034,
      "gittiğini": 7035,
      "tanıdı": 7036,
      "döşam": 7037,
      "sinirleri": 7038,
      "Kendimi": 7039,
      "Kendisiyle": 7040,
      "kafası": 7041,
      "kafasının": 7042,
      "dayanan": 7043,
      "dıkça": 7044,
      "sapa": 7045,
      "kalkmak": 7046,
      "ısmar": 7047,
      "uğraşı": 7048,
      "uğradım": 7049,
      "geriye": 7050,
      "Duşkin": 7051,
      "devire": 7052,
      "fırlattı": 7053,
      "geçirmek": 7054,
      "karısının": 7055,
      "güldür": 7056,
      "gülmekten": 7057,
      "şeh": 7058,
      "konuşuyorum": 7059,
      "tahvil": 7060,
      "aklınız": 7061,
      "çağırıyor": 7062,
      "utandı": 7063,
      "liğinizi": 7064,
      "etmeli": 7065,
      "etmemiş": 7066,
      "durdum": 7067,
      "dışına": 7068,
      "belirgin": 7069,
      "susmuştu": 7070,
      "şekl": 7071,
      "durumdayım": 7072,
      "sevindir": 7073,
      "çarpı": 7074,
      "galak": 7075,
      "bitmez": 7076,
      "hazırlanıyordu": 7077,
      "daireye": 7078,
      "taşra": 7079,
      "etmekle": 7080,
      "etmekten": 7081,
      "oldukları": 7082,
      "lamayacağım": 7083,
      "herkesle": 7084,
      "unuttum": 7085,
      "itip": 7086,
      "ciddiyetle": 7087,
      "buluyordu": 7088,
      "vurmuştu": 7089,
      "yanındaki": 7090,
      "davranışta": 7091,
      "Elleri": 7092,
      "Kimseye": 7093,
      "hızıyla": 7094,
      "pabuç": 7095,
      "öfkeye": 7096,
      "verirdi": 7097,
      "verirken": 7098,
      "soluyarak": 7099,
      "boşalt": 7100,
      "yakınlık": 7101,
      "yaparlar": 7102,
      "yapardım": 7103,
      "laştığını": 7104,
      "Kıza": 7105,
      "alaylı": 7106,
      "cinayete": 7107,
      "cinayetin": 7108,
      "İçki": 7109,
      "luğunun": 7110,
      "semt": 7111,
      "verebilir": 7112,
      "söylediler": 7113,
      "ayrılır": 7114,
      "Babam": 7115,
      "falanca": 7116,
      "leniyor": 7117,
      "mediğimi": 7118,
      "Kapıcının": 7119,
      "borcu": 7120,
      "gülüyorsunuz": 7121,
      "Akşam": 7122,
      "katılıyorum": 7123,
      "mektupta": 7124,
      "ayrıntıları": 7125,
      "ayrıntılarına": 7126,
      "dünyayı": 7127,
      "hakkına": 7128,
      "cikler": 7129,
      "melisiniz": 7130,
      "öksüz": 7131,
      "yarısı": 7132,
      "yarısını": 7133,
      "yakalaya": 7134,
      "yakalayıp": 7135,
      "olmazdı": 7136,
      "şarkıyı": 7137,
      "beygir": 7138,
      "polise": 7139,
      "Kendinden": 7140,
      "Kendinizi": 7141,
      "koymak": 7142,
      "alınmış": 7143,
      "yaşamı": 7144,
      "yapılacak": 7145,
      "yapılabilir": 7146,
      "itirafta": 7147,
      "arkadaşım": 7148,
      "ucundan": 7149,
      "karanlıktı": 7150,
      "kapıcıya": 7151,
      "kapıcıyla": 7152,
      "ayrılmak": 7153,
      "avuç": 7154,
      "avutu": 7155,
      "engelleri": 7156,
      "mektubun": 7157,
      "mektubunda": 7158,
      "sokaklarda": 7159,
      "kitabı": 7160,
      "soğukkanlı": 7161,
      "havaya": 7162,
      "cebinde": 7163,
      "yemeğini": 7164,
      "dolaşarak": 7165,
      "dolaşmaya": 7166,
      "söylediklerini": 7167,
      "yıkı": 7168,
      "cevaplar": 7169,
      "tatsızlık": 7170,
      "karşılaşmaktan": 7171,
      "Korku": 7172,
      "kirpik": 7173,
      "Soğuk": 7174,
      "bitenlerden": 7175,
      "istokrat": 7176,
      "ortasına": 7177,
      "kazandır": 7178,
      "sözümü": 7179,
      "eşyalar": 7180,
      "Soru": 7181,
      "masası": 7182,
      "masasına": 7183,
      "düşüncenin": 7184,
      "düşünceyi": 7185,
      "yüreğinde": 7186,
      "rastlantısal": 7187,
      "Mademki": 7188,
      "uzatıp": 7189,
      "inançları": 7190,
      "çalmak": 7191,
      "miydin": 7192,
      "değiştirdi": 7193,
      "üzüntüyle": 7194,
      "aceleyle": 7195,
      "kalem": 7196,
      "İnanır": 7197,
      "dayanamadı": 7198,
      "ihtiyar": 7199,
      "pazar": 7200,
      "yağlı": 7201,
      "tuğum": 7202,
      "lütf": 7203,
      "taşındım": 7204,
      "kitaplar": 7205,
      "malze": 7206,
      "iskemleye": 7207,
      "üniversiteden": 7208,
      "lmuşçasına": 7209,
      "savaşa": 7210,
      "resmen": 7211,
      "sekizde": 7212,
      "göğsünü": 7213,
      "göğsünde": 7214,
      "bölümdeki": 7215,
      "peşinden": 7216,
      "katilin": 7217,
      "seviyor": 7218,
      "bekliyorsun": 7219,
      "kurnazlık": 7220,
      "arkasındaki": 7221,
      "avluda": 7222,
      "çantası": 7223,
      "divandan": 7224,
      "başarısızlık": 7225,
      "Gelin": 7226,
      "kültürlü": 7227,
      "kızcağızı": 7228,
      "acımasızca": 7229,
      "kayboldu": 7230,
      "bıktım": 7231,
      "elimde": 7232,
      "forma": 7233,
      "Öldü": 7234,
      "bileceğine": 7235,
      "mahkûmlar": 7236,
      "kenarına": 7237,
      "Genel": 7238,
      "Sayın": 7239,
      "bitip": 7240,
      "dolaşıyordu": 7241,
      "bakıma": 7242,
      "ilgilendiren": 7243,
      "ilgilendirmez": 7244,
      "niyetim": 7245,
      "çevresindeki": 7246,
      "Dinleyin": 7247,
      "kırpmadan": 7248,
      "başlıca": 7249,
      "girerim": 7250,
      "kanıtı": 7251,
      "kaynaklanıyor": 7252,
      "Yapa": 7253,
      "lekeler": 7254,
      "buruşturdu": 7255,
      "çağrılı": 7256,
      "kocasının": 7257,
      "üstündeki": 7258,
      "çiğne": 7259,
      "kımıldamadan": 7260,
      "sahibini": 7261,
      "Kafası": 7262,
      "bembeyazdı": 7263,
      "dibine": 7264,
      "suratlı": 7265,
      "odasındaki": 7266,
      "hatırlayamıyorum": 7267,
      "Geber": 7268,
      "Gitmem": 7269,
      "çukur": 7270,
      "ömr": 7271,
      "kadarıyla": 7272,
      "yaşaması": 7273,
      "kuruntulu": 7274,
      "hıçkırık": 7275,
      "tabancayı": 7276,
      "mujikler": 7277,
      "ürperti": 7278,
      "ümüzde": 7279,
      "yetenek": 7280,
      "bilinçli": 7281,
      "Mahkûm": 7282,
      "Mahkeme": 7283,
      "Pencer": 7284,
      "yayımlandı": 7285,
      "babasıyla": 7286,
      "giyinmiş": 7287,
      "ayrımsa": 7288,
      "gittiğimi": 7289,
      "kâğıdının": 7290,
      "köprüye": 7291,
      "andıran": 7292,
      "şuracıkta": 7293,
      "göreceksin": 7294,
      "kurallarını": 7295,
      "gömülmüş": 7296,
      "Karakol": 7297,
      "Öğrenci": 7298,
      "akraba": 7299,
      "Buradan": 7300,
      "tutturdu": 7301,
      "zararlı": 7302,
      "çenesi": 7303,
      "olanağı": 7304,
      "liğimden": 7305,
      "denilebilecek": 7306,
      "alçalmış": 7307,
      "kederli": 7308,
      "dirseklerini": 7309,
      "üzerime": 7310,
      "nitelen": 7311,
      "Sevgi": 7312,
      "alıkoy": 7313,
      "kütük": 7314,
      "bireyci": 7315,
      "kasketini": 7316,
      "bulanık": 7317,
      "mesele": 7318,
      "bilseydiniz": 7319,
      "gerektirecek": 7320,
      "sonucuna": 7321,
      "Sokağa": 7322,
      "hıçkıra": 7323,
      "intihar": 7324,
      "sözcüğü": 7325,
      "sürpriz": 7326,
      "Yargıtay": 7327,
      "çıngırağını": 7328,
      "Sonuç": 7329,
      "fater": 7330,
      "puf": 7331,
      "paketi": 7332,
      "vakti": 7333,
      "kamaştırıcı": 7334,
      "mucize": 7335,
      "bakımından": 7336,
      "restor": 7337,
      "Elbise": 7338,
      "Elimde": 7339,
      "Mihay": 7340,
      "Palas": 7341,
      "süpür": 7342,
      "matematik": 7343,
      "tefek": 7344,
      "gerilim": 7345,
      "favorileri": 7346,
      "ropdöşam": 7347,
      "homurdandı": 7348,
      "esirge": 7349,
      "Kristal": 7350,
      "Periodi": 7351,
      "Puşkin": 7352,
      "Rahmetli": 7353,
      "revol": 7354,
      "görkemli": 7355,
      "Periodiçeskaya": 7356,
      "!),": 7357,
      ".’": 7358,
      "Ağa": 7359,
      "Apar": 7360,
      "Ach": 7361,
      "Alanı": 7362,
      "Ateş": 7363,
      "Bo": 7364,
      "Bah": 7365,
      "Boya": 7366,
      "Din": 7367,
      "Dar": 7368,
      "Dola": 7369,
      "Dördüncü": 7370,
      "Emek": 7371,
      "Gu": 7372,
      "Gri": 7373,
      "Geve": 7374,
      "Gog": 7375,
      "Hor": 7376,
      "Hız": 7377,
      "Haya": 7378,
      "Heh": 7379,
      "IX": 7380,
      "Kâ": 7381,
      "Kas": 7382,
      "Kay": 7383,
      "Koş": 7384,
      "Kah": 7385,
      "Küp": 7386,
      "Lav": 7387,
      "Mal": 7388,
      "Niş": 7389,
      "Oh": 7390,
      "Olay": 7391,
      "Odaya": 7392,
      "Otuz": 7393,
      "Sal": 7394,
      "Solu": 7395,
      "Tar": 7396,
      "Um": 7397,
      "Umutsuz": 7398,
      "VI": 7399,
      "Vay": 7400,
      "Votka": 7401,
      "XIX": 7402,
      "Yo": 7403,
      "Yor": 7404,
      "Yeri": 7405,
      "Yaş": 7406,
      "Yakın": 7407,
      "Yemek": 7408,
      "adan": 7409,
      "abar": 7410,
      "acaktı": 7411,
      "bri": 7412,
      "bere": 7413,
      "böbür": 7414,
      "cınız": 7415,
      "ceydi": 7416,
      "crü": 7417,
      "donu": 7418,
      "emir": 7419,
      "ebbi": 7420,
      "foya": 7421,
      "go": 7422,
      "gam": 7423,
      "hey": 7424,
      "hük": 7425,
      "hot": 7426,
      "hışır": 7427,
      "iğ": 7428,
      "itek": 7429,
      "idar": 7430,
      "kra": 7431,
      "ller": 7432,
      "linin": 7433,
      "mini": 7434,
      "mme": 7435,
      "müz": 7436,
      "notu": 7437,
      "neymiş": 7438,
      "oyalan": 7439,
      "odor": 7440,
      "pen": 7441,
      "pın": 7442,
      "pap": 7443,
      "pah": 7444,
      "palt": 7445,
      "pusu": 7446,
      "püs": 7447,
      "piyan": 7448,
      "rız": 7449,
      "rik": 7450,
      "set": 7451,
      "sünde": 7452,
      "sül": 7453,
      "tra": 7454,
      "tına": 7455,
      "ulu": 7456,
      "ufa": 7457,
      "yun": 7458,
      "yince": 7459,
      "Çek": 7460,
      "Öf": 7461,
      "Öm": 7462,
      "Öğ": 7463,
      "Öteki": 7464,
      "Öhö": 7465,
      "Üni": 7466,
      "çayı": 7467,
      "çora": 7468,
      "çoluk": 7469,
      "öre": 7470,
      "ülen": 7471,
      "üvey": 7472,
      "ıda": 7473,
      "ığın": 7474,
      "ıvır": 7475,
      "Şam": 7476,
      "Şaka": 7477,
      "Şaşı": 7478,
      "şü": 7479,
      "şen": 7480,
      "şka": 7481,
      "şüphe": 7482,
      "ﬁkir": 7483,
      "ﬂe": 7484,
      "andan": 7485,
      "anıt": 7486,
      "arz": 7487,
      "aramak": 7488,
      "artıcı": 7489,
      "aristokrat": 7490,
      "erte": 7491,
      "endi": 7492,
      "engin": 7493,
      "bilardo": 7494,
      "deme": 7495,
      "deyi": 7496,
      "deste": 7497,
      "dağın": 7498,
      "mat": 7499,
      "madın": 7500,
      "madeni": 7501,
      "yay": 7502,
      "yadi": 7503,
      "yayı": 7504,
      "yalist": 7505,
      "lemez": 7506,
      "lediğini": 7507,
      "leyerek": 7508,
      "undu": 7509,
      "laha": 7510,
      "ladın": 7511,
      "lamıyorum": 7512,
      "laﬂar": 7513,
      "duman": 7514,
      "kaçık": 7515,
      "kaydı": 7516,
      "kayet": 7517,
      "kalıyordu": 7518,
      "kasaba": 7519,
      "olman": 7520,
      "olgun": 7521,
      "olmuyor": 7522,
      "dışı": 7523,
      "eketi": 7524,
      "lidir": 7525,
      "üner": 7526,
      "eyip": 7527,
      "tıyorsunuz": 7528,
      "miyorsun": 7529,
      "bulacak": 7530,
      "buranın": 7531,
      "içim": 7532,
      "içir": 7533,
      "içyüzünü": 7534,
      "içiyordu": 7535,
      "içtiği": 7536,
      "asın": 7537,
      "asla": 7538,
      "astıra": 7539,
      "kiraya": 7540,
      "kirasını": 7541,
      "bayan": 7542,
      "bağım": 7543,
      "bahar": 7544,
      "bahane": 7545,
      "babasına": 7546,
      "haba": 7547,
      "hamme": 7548,
      "mıyorsun": 7549,
      "mıyorlar": 7550,
      "denemeye": 7551,
      "vesi": 7552,
      "sis": 7553,
      "siyon": 7554,
      "samış": 7555,
      "memeye": 7556,
      "melek": 7557,
      "mediniz": 7558,
      "ceva": 7559,
      "ceset": 7560,
      "taba": 7561,
      "ızı": 7562,
      "ızda": 7563,
      "gök": 7564,
      "ellerine": 7565,
      "ğir": 7566,
      "etken": 7567,
      "etmeniz": 7568,
      "dana": 7569,
      "okun": 7570,
      "okunu": 7571,
      "tuf": 7572,
      "tuha": 7573,
      "tura": 7574,
      "seme": 7575,
      "sesinin": 7576,
      "sesinde": 7577,
      "sezi": 7578,
      "seğir": 7579,
      "telim": 7580,
      "teceğim": 7581,
      "imdir": 7582,
      "ruru": 7583,
      "ılma": 7584,
      "ikti": 7585,
      "ikiniz": 7586,
      "ayyaş": 7587,
      "ürp": 7588,
      "cadde": 7589,
      "başları": 7590,
      "başlayacak": 7591,
      "başörtü": 7592,
      "sandınız": 7593,
      "alanda": 7594,
      "aldığım": 7595,
      "alçal": 7596,
      "karası": 7597,
      "karyola": 7598,
      "kuşa": 7599,
      "kudur": 7600,
      "yanıp": 7601,
      "yanlarından": 7602,
      "emde": 7603,
      "işadam": 7604,
      "işlerden": 7605,
      "işlerim": 7606,
      "işinize": 7607,
      "işadamı": 7608,
      "ımlar": 7609,
      "irdi": 7610,
      "umarım": 7611,
      "manz": 7612,
      "manastıra": 7613,
      "görerek": 7614,
      "görmüyordu": 7615,
      "keş": 7616,
      "suyordu": 7617,
      "suları": 7618,
      "suza": 7619,
      "sularında": 7620,
      "suyun": 7621,
      "susamış": 7622,
      "gibidir": 7623,
      "gibisiniz": 7624,
      "verdin": 7625,
      "verdiğiniz": 7626,
      "isten": 7627,
      "istas": 7628,
      "özü": 7629,
      "özsaygı": 7630,
      "atma": 7631,
      "kendilerinden": 7632,
      "varı": 7633,
      "çıkmakta": 7634,
      "çıkmasını": 7635,
      "çıktıklarında": 7636,
      "sonuncu": 7637,
      "duğunuzu": 7638,
      "caksın": 7639,
      "caksınız": 7640,
      "düşüyor": 7641,
      "doya": 7642,
      "izli": 7643,
      "izleri": 7644,
      "lerime": 7645,
      "çalar": 7646,
      "değiliz": 7647,
      "yığ": 7648,
      "tanırım": 7649,
      "tanrı": 7650,
      "gerile": 7651,
      "bilemez": 7652,
      "şalı": 7653,
      "dediğim": 7654,
      "dediğiniz": 7655,
      "bakmıştı": 7656,
      "bakmakta": 7657,
      "bakmayın": 7658,
      "gelsin": 7659,
      "geleni": 7660,
      "geldiğ": 7661,
      "gelmezdi": 7662,
      "geldikten": 7663,
      "düşünmekten": 7664,
      "ilke": 7665,
      "ilmik": 7666,
      "evinin": 7667,
      "muşlardı": 7668,
      "anlamadan": 7669,
      "anlamıyor": 7670,
      "anlamadım": 7671,
      "söylemiyorum": 7672,
      "söylediniz": 7673,
      "söylesem": 7674,
      "söylemedim": 7675,
      "söylemeyin": 7676,
      "oluyorsunuz": 7677,
      "oluştu": 7678,
      "oluştur": 7679,
      "yapın": 7680,
      "yapmıştı": 7681,
      "yapmam": 7682,
      "yapıt": 7683,
      "yapmalı": 7684,
      "yapamaya": 7685,
      "bilse": 7686,
      "bilmeyi": 7687,
      "bildiklerini": 7688,
      "sıcaktı": 7689,
      "olduğunuz": 7690,
      "güdü": 7691,
      "deri": 7692,
      "derim": 7693,
      "çeki": 7694,
      "çeken": 7695,
      "çektiri": 7696,
      "çekilip": 7697,
      "kalma": 7698,
      "kalka": 7699,
      "kalkı": 7700,
      "kaldığı": 7701,
      "kalmayacak": 7702,
      "dırmaya": 7703,
      "kaptı": 7704,
      "kaplamıştı": 7705,
      "sözlerin": 7706,
      "sözlerde": 7707,
      "ışıldı": 7708,
      "tüh": 7709,
      "tüp": 7710,
      "gözet": 7711,
      "gözünden": 7712,
      "gözleme": 7713,
      "duyarak": 7714,
      "duymaya": 7715,
      "duymuştum": 7716,
      "koşa": 7717,
      "kocasına": 7718,
      "asılmıştı": 7719,
      "doğmuş": 7720,
      "duruyorlar": 7721,
      "duruyorlardı": 7722,
      "yüzlerce": 7723,
      "yüzümden": 7724,
      "sunda": 7725,
      "olmasını": 7726,
      "yokladı": 7727,
      "geçmek": 7728,
      "lenmişti": 7729,
      "sensin": 7730,
      "sorarım": 7731,
      "Birbir": 7732,
      "tırdı": 7733,
      "tırken": 7734,
      "dirse": 7735,
      "diretti": 7736,
      "kızlar": 7737,
      "kızını": 7738,
      "yaralan": 7739,
      "kıda": 7740,
      "kılığına": 7741,
      "insandı": 7742,
      "insandır": 7743,
      "insansın": 7744,
      "insanlardı": 7745,
      "insanlığa": 7746,
      "tıklarını": 7747,
      "korkarak": 7748,
      "koruyun": 7749,
      "dikerek": 7750,
      "zamanından": 7751,
      "dimdik": 7752,
      "durmakta": 7753,
      "durduğunu": 7754,
      "gerekse": 7755,
      "gerekmez": 7756,
      "reti": 7757,
      "resim": 7758,
      "refor": 7759,
      "nasıldı": 7760,
      "apor": 7761,
      "olanın": 7762,
      "yup": 7763,
      "yuv": 7764,
      "yumuşa": 7765,
      "sürdük": 7766,
      "gitmeden": 7767,
      "gitmemişti": 7768,
      "gitmeyeceğim": 7769,
      "meze": 7770,
      "mezler": 7771,
      "edebilirim": 7772,
      "boh": 7773,
      "boyu": 7774,
      "boyut": 7775,
      "heve": 7776,
      "cuk": 7777,
      "yükü": 7778,
      "sırtüst": 7779,
      "kapısına": 7780,
      "kapısında": 7781,
      "kapıcının": 7782,
      "mazsa": 7783,
      "yaltak": 7784,
      "isteme": 7785,
      "istemem": 7786,
      "istediğinizi": 7787,
      "başkasını": 7788,
      "başkasının": 7789,
      "adamcağız": 7790,
      "bulunmayı": 7791,
      "açıklamak": 7792,
      "otura": 7793,
      "dingin": 7794,
      "dinliyor": 7795,
      "tekli": 7796,
      "yakış": 7797,
      "takı": 7798,
      "meyerek": 7799,
      "vardığında": 7800,
      "odadaki": 7801,
      "odasının": 7802,
      "bağıran": 7803,
      "bağırıyor": 7804,
      "bağırıyorlardı": 7805,
      "sarar": 7806,
      "köpek": 7807,
      "sök": 7808,
      "halle": 7809,
      "halinden": 7810,
      "açan": 7811,
      "kaçmış": 7812,
      "ettiğin": 7813,
      "yazıyordu": 7814,
      "müşler": 7815,
      "müşteri": 7816,
      "katkıda": 7817,
      "girmek": 7818,
      "girmişti": 7819,
      "girmeye": 7820,
      "girerek": 7821,
      "girince": 7822,
      "girdiğini": 7823,
      "edilmiş": 7824,
      "aşk": 7825,
      "aşçı": 7826,
      "erince": 7827,
      "canını": 7828,
      "canlandır": 7829,
      "acıyan": 7830,
      "acıyı": 7831,
      "acısı": 7832,
      "nedenlerini": 7833,
      "nedeninin": 7834,
      "ağar": 7835,
      "ağlayıp": 7836,
      "ağlamak": 7837,
      "örek": 7838,
      "hepiniz": 7839,
      "hepsinden": 7840,
      "kanını": 7841,
      "kanep": 7842,
      "kardeşler": 7843,
      "görüle": 7844,
      "ölür": 7845,
      "ölmesi": 7846,
      "menizin": 7847,
      "biriydi": 7848,
      "biriyim": 7849,
      "büyükçe": 7850,
      "iliyor": 7851,
      "sıkça": 7852,
      "sıkış": 7853,
      "sıkıyor": 7854,
      "sıkıldı": 7855,
      "sevini": 7856,
      "sevine": 7857,
      "kadınlara": 7858,
      "Annen": 7859,
      "mızdaki": 7860,
      "konuşması": 7861,
      "konuştum": 7862,
      "konuşmuyordu": 7863,
      "düşüncelerden": 7864,
      "düşüncelerine": 7865,
      "düşüncesiyle": 7866,
      "paralarını": 7867,
      "ipe": 7868,
      "bırakan": 7869,
      "bırakmış": 7870,
      "bırakmaya": 7871,
      "bırakmadan": 7872,
      "bıraktım": 7873,
      "kesmek": 7874,
      "kesmişti": 7875,
      "çıkarmadan": 7876,
      "yolları": 7877,
      "dünyanın": 7878,
      "uyum": 7879,
      "uydur": 7880,
      "okulu": 7881,
      "okumak": 7882,
      "ilgimi": 7883,
      "ilgisiz": 7884,
      "korkulu": 7885,
      "şiyordu": 7886,
      "şikayet": 7887,
      "salona": 7888,
      "sallayıp": 7889,
      "ayrılmış": 7890,
      "kurdele": 7891,
      "kuşkuları": 7892,
      "kuşkusu": 7893,
      "mesiydi": 7894,
      "eceğinden": 7895,
      "ysem": 7896,
      "oturduğunu": 7897,
      "Tanı": 7898,
      "olaydan": 7899,
      "masıyla": 7900,
      "mutf": 7901,
      "buradadır": 7902,
      "karardı": 7903,
      "yeterince": 7904,
      "Onları": 7905,
      "dava": 7906,
      "çif": 7907,
      "çimi": 7908,
      "Şuraya": 7909,
      "hatırlamaya": 7910,
      "seydim": 7911,
      "heriﬁn": 7912,
      "fağa": 7913,
      "hastayı": 7914,
      "hastalığı": 7915,
      "adlı": 7916,
      "hakları": 7917,
      "haksız": 7918,
      "tartı": 7919,
      "tarcasına": 7920,
      "edersin": 7921,
      "edersen": 7922,
      "çocuklara": 7923,
      "çocuklarının": 7924,
      "sahneyi": 7925,
      "ecekler": 7926,
      "eceksin": 7927,
      "saatin": 7928,
      "layabilmek": 7929,
      "gelebilir": 7930,
      "gelebilirdi": 7931,
      "gideceğiz": 7932,
      "kayık": 7933,
      "eğilmiş": 7934,
      "öfken": 7935,
      "ülke": 7936,
      "gizlenmiş": 7937,
      "dakikalığına": 7938,
      "serp": 7939,
      "serseme": 7940,
      "gidişi": 7941,
      "gidiyormuş": 7942,
      "nerde": 7943,
      "suçum": 7944,
      "suçlunun": 7945,
      "eşek": 7946,
      "korktu": 7947,
      "korktuğu": 7948,
      "fare": 7949,
      "farkı": 7950,
      "sağlamış": 7951,
      "rubleye": 7952,
      "rublesini": 7953,
      "haydut": 7954,
      "çalışır": 7955,
      "çalıştığını": 7956,
      "soruyorsunuz": 7957,
      "sorulardan": 7958,
      "soruştur": 7959,
      "eğmiş": 7960,
      "cağında": 7961,
      "basma": 7962,
      "kalacağım": 7963,
      "eskisi": 7964,
      "başlamak": 7965,
      "yürüyerek": 7966,
      "anneme": 7967,
      "zıvır": 7968,
      "Dayak": 7969,
      "geldiler": 7970,
      "işimi": 7971,
      "işiyle": 7972,
      "biliyorlar": 7973,
      "kaldırarak": 7974,
      "Şimdilik": 7975,
      "duyguydu": 7976,
      "deliye": 7977,
      "delilik": 7978,
      "deliğin": 7979,
      "tanıdığı": 7980,
      "döve": 7981,
      "döşe": 7982,
      "itti": 7983,
      "üşünü": 7984,
      "Kendisinden": 7985,
      "ağırlık": 7986,
      "sapan": 7987,
      "mamın": 7988,
      "hazret": 7989,
      "Yaka": 7990,
      "Yoksul": 7991,
      "alayla": 7992,
      "alalım": 7993,
      "güzeldi": 7994,
      "kalkmıştı": 7995,
      "çarmıha": 7996,
      "uğramış": 7997,
      "uğramıştım": 7998,
      "geride": 7999,
      "öldürdün": 8000,
      "öldürmedim": 8001,
      "öldürdünüz": 8002,
      "fırlayarak": 8003,
      "fırlat": 8004,
      "hareketi": 8005,
      "madığınızı": 8006,
      "cağımızı": 8007,
      "oturuyorsunuz": 8008,
      "çıktığını": 8009,
      "güldü": 8010,
      "gülmesi": 8011,
      "yapayalnız": 8012,
      "yorlarmış": 8013,
      "ğimde": 8014,
      "konuşulanları": 8015,
      "bugünkü": 8016,
      "aklının": 8017,
      "çağıran": 8018,
      "çağırın": 8019,
      "çağırmaya": 8020,
      "bekleme": 8021,
      "bekledim": 8022,
      "beklediğini": 8023,
      "utanmıştı": 8024,
      "utanıyor": 8025,
      "götürmek": 8026,
      "sokağın": 8027,
      "etmemek": 8028,
      "Kom": 8029,
      "gönlü": 8030,
      "belirtelim": 8031,
      "beriki": 8032,
      "sindeki": 8033,
      "söyleyebil": 8034,
      "söyleyebilir": 8035,
      "söyleyebilirim": 8036,
      "cıklar": 8037,
      "metre": 8038,
      "ayağının": 8039,
      "uyuyor": 8040,
      "maktaydı": 8041,
      "sevinmişti": 8042,
      "çarpa": 8043,
      "bitmiş": 8044,
      "değerleri": 8045,
      "değerlendir": 8046,
      "hazırlık": 8047,
      "ğınızın": 8048,
      "bahçe": 8049,
      "bahçede": 8050,
      "süzen": 8051,
      "dairede": 8052,
      "daireyi": 8053,
      "gençlik": 8054,
      "avuntu": 8055,
      "altındaki": 8056,
      "saçmalık": 8057,
      "heyecanını": 8058,
      "değişmiş": 8059,
      "Hayat": 8060,
      "ilerideki": 8061,
      "oyuna": 8062,
      "sonuca": 8063,
      "itişip": 8064,
      "Biliyordum": 8065,
      "ünüzden": 8066,
      "bulut": 8067,
      "tutuştu": 8068,
      "tutuşan": 8069,
      "olmasıydı": 8070,
      "vurarak": 8071,
      "rastladığı": 8072,
      "yönde": 8073,
      "yönden": 8074,
      "yönümden": 8075,
      "ağzımdan": 8076,
      "konuşmaları": 8077,
      "konuşmamız": 8078,
      "Doğruca": 8079,
      "Kimsiniz": 8080,
      "duvarlara": 8081,
      "anlaşıl": 8082,
      "anlaşıldı": 8083,
      "geçtiği": 8084,
      "sessizliği": 8085,
      "hızlandır": 8086,
      "ölümden": 8087,
      "kimseler": 8088,
      "düzey": 8089,
      "yanıma": 8090,
      "yanılıyor": 8091,
      "öfkeleni": 8092,
      "demokrat": 8093,
      "kişilerin": 8094,
      "çevire": 8095,
      "verirler": 8096,
      "yaraya": 8097,
      "alçaklar": 8098,
      "düşünüyordum": 8099,
      "yakınları": 8100,
      "yakınlarda": 8101,
      "gönderil": 8102,
      "öpmeye": 8103,
      "öpüyor": 8104,
      "rafı": 8105,
      "Artel": 8106,
      "kiliseye": 8107,
      "temizledi": 8108,
      "yapardı": 8109,
      "yaparım": 8110,
      "yaparsınız": 8111,
      "yaptığınızı": 8112,
      "bulunduğumu": 8113,
      "mahvet": 8114,
      "baltanın": 8115,
      "larınızdan": 8116,
      "luğunda": 8117,
      "arabayı": 8118,
      "sözlerimi": 8119,
      "Baba": 8120,
      "Hepinizi": 8121,
      "uyanır": 8122,
      "yatağın": 8123,
      "söylemekten": 8124,
      "ihbar": 8125,
      "kovdu": 8126,
      "yazılı": 8127,
      "uygunsuz": 8128,
      "sabahleyin": 8129,
      "etmişlerdi": 8130,
      "etmiştiniz": 8131,
      "lendirmek": 8132,
      "toplumun": 8133,
      "toplumunda": 8134,
      "giderdi": 8135,
      "giderek": 8136,
      "giderim": 8137,
      "gülüyor": 8138,
      "dairesine": 8139,
      "dairesinde": 8140,
      "şapkayı": 8141,
      "şapkası": 8142,
      "Yüzde": 8143,
      "Yüzünü": 8144,
      "Yüzünde": 8145,
      "anlayamıyordu": 8146,
      "hakkını": 8147,
      "diriliş": 8148,
      "zorundaydı": 8149,
      "madığımı": 8150,
      "dudaklarını": 8151,
      "dudaklarına": 8152,
      "gelişim": 8153,
      "yakalar": 8154,
      "yakaladı": 8155,
      "larımın": 8156,
      "Söyledik": 8157,
      "aydınlanmış": 8158,
      "Bugüne": 8159,
      "bozuntu": 8160,
      "sayısız": 8161,
      "etmeyeceğim": 8162,
      "anlatıyor": 8163,
      "anlatıyordu": 8164,
      "koyduğu": 8165,
      "olursam": 8166,
      "İnsanın": 8167,
      "alındı": 8168,
      "karşılan": 8169,
      "gelecekteki": 8170,
      "hatırladım": 8171,
      "Bize": 8172,
      "olanaklar": 8173,
      "ucuz": 8174,
      "anlaşılıyor": 8175,
      "kapıcıyı": 8176,
      "yürüdüler": 8177,
      "kabaca": 8178,
      "Kadının": 8179,
      "bildiğinizi": 8180,
      "kardeşimi": 8181,
      "kahkahalar": 8182,
      "rumda": 8183,
      "lurcasına": 8184,
      "tekrarlayıp": 8185,
      "tekrarlıyorum": 8186,
      "tehlik": 8187,
      "yanlışlık": 8188,
      "evlenmek": 8189,
      "söylediklerine": 8190,
      "Poçin": 8191,
      "hikay": 8192,
      "övünü": 8193,
      "lerinizle": 8194,
      "lerinizden": 8195,
      "kendimden": 8196,
      "kıvr": 8197,
      "zayıﬂ": 8198,
      "haberim": 8199,
      "olamazdı": 8200,
      "ziyaretine": 8201,
      "bitenler": 8202,
      "kaşları": 8203,
      "bulabilir": 8204,
      "delikanlıyı": 8205,
      "Gidiyorum": 8206,
      "içkiyi": 8207,
      "bıraktığını": 8208,
      "eşyaların": 8209,
      "gırtla": 8210,
      "masasının": 8211,
      "evime": 8212,
      "yerindeydi": 8213,
      "niyetli": 8214,
      "uzadı": 8215,
      "uzata": 8216,
      "haliyle": 8217,
      "izlemek": 8218,
      "izlemeye": 8219,
      "izlediğini": 8220,
      "bilgili": 8221,
      "kımıldadı": 8222,
      "hissetme": 8223,
      "çalmaya": 8224,
      "bildiğimi": 8225,
      "dersleri": 8226,
      "gizlice": 8227,
      "üzüntüden": 8228,
      "zincir": 8229,
      "kalemi": 8230,
      "bakıyorlardı": 8231,
      "uzanıp": 8232,
      "Annesi": 8233,
      "Anneciğim": 8234,
      "dayanamamış": 8235,
      "gürültüyle": 8236,
      "ihtiyat": 8237,
      "Kadınlar": 8238,
      "tuğla": 8239,
      "şaşırtmış": 8240,
      "küskü": 8241,
      "Almanca": 8242,
      "çözümlen": 8243,
      "Aradan": 8244,
      "Tüccar": 8245,
      "basıyla": 8246,
      "konfor": 8247,
      "selamladı": 8248,
      "bulduk": 8249,
      "gözyaşlarını": 8250,
      "görülür": 8251,
      "görülmemiş": 8252,
      "görülmeyen": 8253,
      "garson": 8254,
      "garip": 8255,
      "sezdir": 8256,
      "seziliyordu": 8257,
      "isteksizce": 8258,
      "çabayla": 8259,
      "sekize": 8260,
      "pencereyi": 8261,
      "göğsünden": 8262,
      "peşine": 8263,
      "kafalı": 8264,
      "kafadan": 8265,
      "seviyorum": 8266,
      "görürüz": 8267,
      "anlatacak": 8268,
      "bekliyorlardı": 8269,
      "kullandığı": 8270,
      "doldurdu": 8271,
      "kambur": 8272,
      "varsayalım": 8273,
      "çıkmıştır": 8274,
      "edeceksin": 8275,
      "kaygıyla": 8276,
      "kalabalığa": 8277,
      "yolağ": 8278,
      "ürkmüş": 8279,
      "bilmece": 8280,
      "ilgilendiriyor": 8281,
      "sayıklamalı": 8282,
      "Rusça": 8283,
      "Yanak": 8284,
      "tükürmüşüm": 8285,
      "gücüm": 8286,
      "safça": 8287,
      "bileceğiniz": 8288,
      "bileceğinden": 8289,
      "Saçları": 8290,
      "apartmanı": 8291,
      "banknotu": 8292,
      "Konuşsana": 8293,
      "küstahça": 8294,
      "Köşede": 8295,
      "kutsa": 8296,
      "yardıma": 8297,
      "durakladı": 8298,
      "hayvanın": 8299,
      "yapacaksınız": 8300,
      "anımsaya": 8301,
      "Yazar": 8302,
      "yasaları": 8303,
      "verecekti": 8304,
      "konukların": 8305,
      "çiftlik": 8306,
      "harcama": 8307,
      "öfkelenmişti": 8308,
      "alışkanlık": 8309,
      "lığımdan": 8310,
      "susuyor": 8311,
      "diyeceksiniz": 8312,
      "illes": 8313,
      "koşmaya": 8314,
      "dönerim": 8315,
      "parmağı": 8316,
      "parmağıyla": 8317,
      "konuştukları": 8318,
      "burnunu": 8319,
      "Uzunca": 8320,
      "omuzlarını": 8321,
      "anladığınız": 8322,
      "kıyısında": 8323,
      "sıkıntısı": 8324,
      "sıkıntısıyla": 8325,
      "Eskiden": 8326,
      "rolü": 8327,
      "duyabileceği": 8328,
      "elinizden": 8329,
      "geçerli": 8330,
      "yükseldi": 8331,
      "parçalan": 8332,
      "yetişti": 8333,
      "Neredeyse": 8334,
      "özgürlük": 8335,
      "gerekecekti": 8336,
      "yalvarıyordu": 8337,
      "uçuşuyordu": 8338,
      "anneniz": 8339,
      "birbiriyle": 8340,
      "birbirimizden": 8341,
      "güneşin": 8342,
      "tıkanırcasına": 8343,
      "yazgısı": 8344,
      "seyrediyordu": 8345,
      "damlacık": 8346,
      "Ağzı": 8347,
      "dişlerini": 8348,
      "meslek": 8349,
      "gömleğini": 8350,
      "çevreyi": 8351,
      "getiririm": 8352,
      "Defolun": 8353,
      "edebiyatçı": 8354,
      "armağanı": 8355,
      "Ayakta": 8356,
      "Telaş": 8357,
      "biriktir": 8358,
      "hapishanede": 8359,
      "kusursuz": 8360,
      "kızdırmak": 8361,
      "Baltayla": 8362,
      "kışkırt": 8363,
      "Zaharoviç": 8364,
      "Yerinden": 8365,
      "broş": 8366,
      "caydı": 8367,
      "peygam": 8368,
      "andırıyordu": 8369,
      "birincisi": 8370,
      "başarmıştı": 8371,
      "yükseliyor": 8372,
      "kaçınılmaz": 8373,
      "Aklına": 8374,
      "Kurnaz": 8375,
      "avucunda": 8376,
      "coşkunluk": 8377,
      "omzundan": 8378,
      "Günah": 8379,
      "Hareket": 8380,
      "Karakola": 8381,
      "Olduğu": 8382,
      "Top": 8383,
      "mobilya": 8384,
      "yöneti": 8385,
      "katili": 8386,
      "alnına": 8387,
      "umarsız": 8388,
      "takındığı": 8389,
      "tutturmuş": 8390,
      "dökülü": 8391,
      "suskunluk": 8392,
      "çoraplarını": 8393,
      "karmakarışıktı": 8394,
      "Muhamme": 8395,
      "Pansiyon": 8396,
      "Zarnit": 8397,
      "mürebbi": 8398,
      "entari": 8399,
      "entarisi": 8400,
      "dilenci": 8401,
      "alçalt": 8402,
      "işlendiği": 8403,
      "yaptıklarını": 8404,
      "kurtarıcı": 8405,
      "hastalığının": 8406,
      "davranışıyla": 8407,
      "uzaklaşarak": 8408,
      "borcunu": 8409,
      "duraksadı": 8410,
      "laternacı": 8411,
      "eşiğinde": 8412,
      "zekice": 8413,
      "deneyimli": 8414,
      "duyumsuyordu": 8415,
      "belleğinde": 8416,
      "aydınlatıyordu": 8417,
      "nöbetiyle": 8418,
      "adımımı": 8419,
      "psikoloji": 8420,
      "Sırtında": 8421,
      "mesleki": 8422,
      "Kazyol": 8423,
      "Kesinlikle": 8424,
      "babanız": 8425,
      "haberin": 8426,
      "yumuşak": 8427,
      "hesabına": 8428,
      "gıcırdat": 8429,
      "yetmezmiş": 8430,
      "korktuğunu": 8431,
      "Ayağa": 8432,
      "Bitkin": 8433,
      "Dönüp": 8434,
      "Heyecan": 8435,
      "Hapis": 8436,
      "Madon": 8437,
      "Tahmin": 8438,
      "Unutma": 8439,
      "ipekli": 8440,
      "koğuş": 8441,
      "yaşayış": 8442,
      "devrim": 8443,
      "Akıllı": 8444,
      "kıskanç": 8445,
      "öğrenimi": 8446,
      "ovuşturuyor": 8447,
      "Haklısınız": 8448,
      "Yukarı": 8449,
      "Yatak": 8450,
      "eziyet": 8451,
      "semaver": 8452,
      "küfür": 8453,
      "sermayesi": 8454,
      "öldürürüm": 8455,
      "beraber": 8456,
      "söylenemezdi": 8457,
      "beynine": 8458,
      "tehdit": 8459,
      "felseﬁ": 8460,
      "Güneş": 8461,
      "Hakk": 8462,
      "baraka": 8463,
      "Çıldır": 8464,
      "caddenin": 8465,
      "müşavir": 8466,
      "hepimiz": 8467,
      "burjuva": 8468,
      "İngiliz": 8469,
      "ısmarladık": 8470,
      "şehvet": 8471,
      "Sevgili": 8472,
      "Achilles": 8473,
      "Grig": 8474,
      "Gogol": 8475,
      "Kâğı": 8476,
      "Küpe": 8477,
      "Laviza": 8478,
      "Umarım": 8479,
      "hotoz": 8480,
      "iğne": 8481,
      "pahasına": 8482,
      "ufacık": 8483,
      "Öğle": 8484,
      "Şaşılacak": 8485,
      "lahaısmarladık": 8486,
      "sırtüstü": 8487,
      "Poçinkov": 8488,
      "peygamber": 8489,
      "Muhammed": 8490,
      "Zarnitsına": 8491,
      "mürebbiye": 8492,
      "Ace": 8493,
      "Ağır": 8494,
      "Aras": 8495,
      "Bin": 8496,
      "Binin": 8497,
      "Boğu": 8498,
      "Can": 8499,
      "Cen": 8500,
      "Dip": 8501,
      "Dünden": 8502,
      "Değil": 8503,
      "Ek": 8504,
      "Et": 8505,
      "Ey": 8506,
      "He": 8507,
      "Hut": 8508,
      "Kira": 8509,
      "Kaldır": 8510,
      "Madam": 8511,
      "Meğer": 8512,
      "Mez": 8513,
      "Mumu": 8514,
      "Na": 8515,
      "Otu": 8516,
      "Pren": 8517,
      "Sıt": 8518,
      "Söy": 8519,
      "Süs": 8520,
      "Tir": 8521,
      "Tat": 8522,
      "Tüm": 8523,
      "Teğ": 8524,
      "Tez": 8525,
      "Uğ": 8526,
      "Verin": 8527,
      "Yas": 8528,
      "Yara": 8529,
      "Yağ": 8530,
      "Yeme": 8531,
      "Zi": 8532,
      "Zor": 8533,
      "Zevk": 8534,
      "ade": 8535,
      "ail": 8536,
      "alıyordu": 8537,
      "acık": 8538,
      "alıyorum": 8539,
      "aşıp": 8540,
      "acır": 8541,
      "bini": 8542,
      "bölü": 8543,
      "börek": 8544,
      "cö": 8545,
      "cim": 8546,
      "cüz": 8547,
      "ciyi": 8548,
      "cından": 8549,
      "dona": 8550,
      "doldu": 8551,
      "eceği": 8552,
      "ebilirsiniz": 8553,
      "fah": 8554,
      "gunu": 8555,
      "güz": 8556,
      "gına": 8557,
      "gri": 8558,
      "got": 8559,
      "gunun": 8560,
      "grup": 8561,
      "hüner": 8562,
      "iler": 8563,
      "ilik": 8564,
      "iddi": 8565,
      "ji": 8566,
      "jen": 8567,
      "kini": 8568,
      "kti": 8569,
      "kok": 8570,
      "konunun": 8571,
      "lin": 8572,
      "lmişti": 8573,
      "mm": 8574,
      "mla": 8575,
      "meni": 8576,
      "mbul": 8577,
      "merdi": 8578,
      "nan": 8579,
      "nden": 8580,
      "nası": 8581,
      "neyiniz": 8582,
      "odun": 8583,
      "pem": 8584,
      "pri": 8585,
      "peç": 8586,
      "rkek": 8587,
      "stan": 8588,
      "tmiş": 8589,
      "tman": 8590,
      "teye": 8591,
      "tarak": 8592,
      "tre": 8593,
      "teyse": 8594,
      "up": 8595,
      "ulan": 8596,
      "ulaşa": 8597,
      "uvim": 8598,
      "vas": 8599,
      "valtı": 8600,
      "yh": 8601,
      "yetti": 8602,
      "yolanın": 8603,
      "zaket": 8604,
      "Çile": 8605,
      "Çağır": 8606,
      "Çamaşır": 8607,
      "Ölüm": 8608,
      "Ürkek": 8609,
      "çel": 8610,
      "çet": 8611,
      "çür": 8612,
      "çinin": 8613,
      "çalan": 8614,
      "çırıl": 8615,
      "öd": 8616,
      "övü": 8617,
      "ğum": 8618,
      "ğince": 8619,
      "ğünde": 8620,
      "ğinizi": 8621,
      "ğaydı": 8622,
      "İs": 8623,
      "İçi": 8624,
      "ıma": 8625,
      "ılık": 8626,
      "Şöyle": 8627,
      "Şaşır": 8628,
      "Şaşkın": 8629,
      "şmuş": 8630,
      "şük": 8631,
      "şmaya": 8632,
      "şeri": 8633,
      "şelen": 8634,
      "şallah": 8635,
      "–,": 8636,
      "“…”": 8637,
      "”;": 8638,
      "ﬁkr": 8639,
      "ﬁzik": 8640,
      "ﬂarı": 8641,
      "inc": 8642,
      "inmez": 8643,
      "inski": 8644,
      "anet": 8645,
      "anik": 8646,
      "anasına": 8647,
      "ansızın": 8648,
      "arş": 8649,
      "arta": 8650,
      "aray": 8651,
      "eriş": 8652,
      "erdir": 8653,
      "erre": 8654,
      "ens": 8655,
      "eniz": 8656,
      "biç": 8657,
      "bilerek": 8658,
      "biçimi": 8659,
      "die": 8660,
      "diler": 8661,
      "dilek": 8662,
      "diyordum": 8663,
      "dikiş": 8664,
      "diyeyim": 8665,
      "des": 8666,
      "deha": 8667,
      "demişti": 8668,
      "demez": 8669,
      "dedin": 8670,
      "dediniz": 8671,
      "deyken": 8672,
      "deft": 8673,
      "dağının": 8674,
      "birlik": 8675,
      "birleş": 8676,
      "mağı": 8677,
      "maydı": 8678,
      "madal": 8679,
      "mamakla": 8680,
      "yad": 8681,
      "yaya": 8682,
      "yaşıyor": 8683,
      "ordu": 8684,
      "orok": 8685,
      "lediği": 8686,
      "ledim": 8687,
      "lemesini": 8688,
      "latan": 8689,
      "lamakta": 8690,
      "ladınız": 8691,
      "labileceğini": 8692,
      "lamanın": 8693,
      "lağar": 8694,
      "duasını": 8695,
      "duyacak": 8696,
      "kate": 8697,
      "kaça": 8698,
      "kalım": 8699,
      "kabalık": 8700,
      "kalıp": 8701,
      "oldun": 8702,
      "olmuyordu": 8703,
      "larlar": 8704,
      "larsa": 8705,
      "larmış": 8706,
      "ekleye": 8707,
      "liç": 8708,
      "aksi": 8709,
      "akşama": 8710,
      "eyken": 8711,
      "tılan": 8712,
      "mis": 8713,
      "miyorsunuz": 8714,
      "miyorlar": 8715,
      "buda": 8716,
      "butun": 8717,
      "içe": 8718,
      "içmem": 8719,
      "içimde": 8720,
      "asl": 8721,
      "bacağını": 8722,
      "babanın": 8723,
      "tiğin": 8724,
      "ova": 8725,
      "hayı": 8726,
      "halim": 8727,
      "mıh": 8728,
      "mıyormuş": 8729,
      "ırsın": 8730,
      "ırmağı": 8731,
      "sivil": 8732,
      "sata": 8733,
      "sayar": 8734,
      "samaz": 8735,
      "satar": 8736,
      "sabı": 8737,
      "mete": 8738,
      "memiz": 8739,
      "melere": 8740,
      "mesinde": 8741,
      "tadan": 8742,
      "ramanı": 8743,
      "rapor": 8744,
      "elinize": 8745,
      "elbette": 8746,
      "etli": 8747,
      "eteği": 8748,
      "eteğ": 8749,
      "dangalak": 8750,
      "okş": 8751,
      "kenti": 8752,
      "tul": 8753,
      "severdi": 8754,
      "muay": 8755,
      "tetik": 8756,
      "tecrü": 8757,
      "imz": 8758,
      "iman": 8759,
      "yemiş": 8760,
      "yemeye": 8761,
      "yediği": 8762,
      "yebilmek": 8763,
      "nezaket": 8764,
      "ılda": 8765,
      "şeyim": 8766,
      "ayna": 8767,
      "miştiniz": 8768,
      "ınıyor": 8769,
      "geler": 8770,
      "gelerek": 8771,
      "gezin": 8772,
      "başınızda": 8773,
      "sanık": 8774,
      "alma": 8775,
      "alta": 8776,
      "alına": 8777,
      "alsın": 8778,
      "alının": 8779,
      "almıştım": 8780,
      "kart": 8781,
      "karara": 8782,
      "karam": 8783,
      "karanlı": 8784,
      "kuşam": 8785,
      "yanları": 8786,
      "yanaş": 8787,
      "ınayak": 8788,
      "koluna": 8789,
      "kolundan": 8790,
      "koltuk": 8791,
      "azı": 8792,
      "işti": 8793,
      "işlerde": 8794,
      "işlerle": 8795,
      "ımla": 8796,
      "ımsı": 8797,
      "irse": 8798,
      "irim": 8799,
      "nikâ": 8800,
      "sizsiniz": 8801,
      "sizleş": 8802,
      "umdan": 8803,
      "manto": 8804,
      "görmem": 8805,
      "görmeden": 8806,
      "görmeyi": 8807,
      "görmekte": 8808,
      "görevli": 8809,
      "Rast": 8810,
      "kedi": 8811,
      "keçi": 8812,
      "sular": 8813,
      "suyu": 8814,
      "gibisin": 8815,
      "mekanik": 8816,
      "verem": 8817,
      "vererek": 8818,
      "verince": 8819,
      "vermiyordu": 8820,
      "vereyim": 8821,
      "verans": 8822,
      "vereceğini": 8823,
      "isinin": 8824,
      "özünü": 8825,
      "atla": 8826,
      "atları": 8827,
      "atladı": 8828,
      "atların": 8829,
      "atöl": 8830,
      "atarken": 8831,
      "vari": 8832,
      "varır": 8833,
      "önde": 8834,
      "caklar": 8835,
      "düşen": 8836,
      "doyu": 8837,
      "izlerini": 8838,
      "izledi": 8839,
      "lerimiz": 8840,
      "makbuz": 8841,
      "çatı": 8842,
      "çalacak": 8843,
      "çabasıyla": 8844,
      "yıla": 8845,
      "lanın": 8846,
      "landım": 8847,
      "lanmaz": 8848,
      "bilesin": 8849,
      "bilemiyordu": 8850,
      "bileymiş": 8851,
      "bilemezsiniz": 8852,
      "araç": 8853,
      "aramı": 8854,
      "aradım": 8855,
      "arabas": 8856,
      "aramıyordu": 8857,
      "aralıktan": 8858,
      "bakmayı": 8859,
      "bakmadı": 8860,
      "bakmaktan": 8861,
      "bakıyorsunuz": 8862,
      "bakarken": 8863,
      "gelmem": 8864,
      "gelmeden": 8865,
      "gelmiyor": 8866,
      "gelmiyordu": 8867,
      "gelmekte": 8868,
      "gelmeniz": 8869,
      "düşünen": 8870,
      "düşünme": 8871,
      "düşünmem": 8872,
      "düşünmemişti": 8873,
      "cığı": 8874,
      "yiye": 8875,
      "yitip": 8876,
      "değiller": 8877,
      "değildim": 8878,
      "evlerin": 8879,
      "anlamaz": 8880,
      "anladınız": 8881,
      "anlamamış": 8882,
      "Budala": 8883,
      "olaydı": 8884,
      "olabileceği": 8885,
      "olacağımı": 8886,
      "olacağına": 8887,
      "söylememişti": 8888,
      "söylemeyi": 8889,
      "söylemeyeceğim": 8890,
      "söylemeleri": 8891,
      "söylesene": 8892,
      "söylememe": 8893,
      "söylediğimde": 8894,
      "oluyormuş": 8895,
      "oluşan": 8896,
      "adalara": 8897,
      "stin": 8898,
      "yapsın": 8899,
      "yapıldı": 8900,
      "yapıştır": 8901,
      "yaptın": 8902,
      "yapamam": 8903,
      "bilmeden": 8904,
      "bilgin": 8905,
      "bilmeyen": 8906,
      "sığır": 8907,
      "sıyr": 8908,
      "olduğunca": 8909,
      "yerler": 8910,
      "yerim": 8911,
      "yerdir": 8912,
      "yerlerine": 8913,
      "dergide": 8914,
      "dernek": 8915,
      "dergiyi": 8916,
      "konuğa": 8917,
      "konuğu": 8918,
      "unuzun": 8919,
      "ladığım": 8920,
      "cekler": 8921,
      "ceket": 8922,
      "ceksin": 8923,
      "larınca": 8924,
      "çekilen": 8925,
      "çekeceğim": 8926,
      "çekiyorsunuz": 8927,
      "kaldım": 8928,
      "dırdı": 8929,
      "buldunuz": 8930,
      "kapat": 8931,
      "kapana": 8932,
      "kapatı": 8933,
      "sözden": 8934,
      "sözlerle": 8935,
      "sözlerinde": 8936,
      "sözlerim": 8937,
      "sözlerinden": 8938,
      "ışma": 8939,
      "ylaştır": 8940,
      "tüler": 8941,
      "tümü": 8942,
      "tüğü": 8943,
      "gözlerim": 8944,
      "gözlerinizi": 8945,
      "duymaz": 8946,
      "duymasına": 8947,
      "duyarım": 8948,
      "duygunun": 8949,
      "günde": 8950,
      "günkü": 8951,
      "günlerini": 8952,
      "koya": 8953,
      "komik": 8954,
      "yüzkarası": 8955,
      "olmas": 8956,
      "olmamak": 8957,
      "olmayı": 8958,
      "olmasının": 8959,
      "olmalıydı": 8960,
      "olmamakla": 8961,
      "olmasaydım": 8962,
      "meyeceğimi": 8963,
      "yokmuş": 8964,
      "geçecek": 8965,
      "lenerek": 8966,
      "sormuş": 8967,
      "sorul": 8968,
      "sorayım": 8969,
      "sormuştum": 8970,
      "tırlar": 8971,
      "tırnak": 8972,
      "diren": 8973,
      "kızından": 8974,
      "kızıyor": 8975,
      "kızardı": 8976,
      "yaret": 8977,
      "yaratmıştı": 8978,
      "yaralının": 8979,
      "kadarına": 8980,
      "doğrul": 8981,
      "doğruladı": 8982,
      "doğrudur": 8983,
      "doğrulmuştu": 8984,
      "kılı": 8985,
      "kısık": 8986,
      "Neşe": 8987,
      "iyidir": 8988,
      "iyiliğinizi": 8989,
      "üzerlerinde": 8990,
      "üzereyken": 8991,
      "kendince": 8992,
      "tıklım": 8993,
      "tıklarından": 8994,
      "tıknaz": 8995,
      "korkan": 8996,
      "ciği": 8997,
      "ciğer": 8998,
      "diktir": 8999,
      "dikçe": 9000,
      "dikkati": 9001,
      "durdur": 9002,
      "Bende": 9003,
      "redde": 9004,
      "reverans": 9005,
      "karşılaştır": 9006,
      "karşılamıştı": 9007,
      "apta": 9008,
      "olanaklı": 9009,
      "arıyor": 9010,
      "sürecek": 9011,
      "sürüp": 9012,
      "sürmedi": 9013,
      "uzattığı": 9014,
      "gitmez": 9015,
      "gitmiştim": 9016,
      "gitmekte": 9017,
      "mezarı": 9018,
      "ikisini": 9019,
      "edemem": 9020,
      "edebilirdi": 9021,
      "edebilirsiniz": 9022,
      "edemezsiniz": 9023,
      "boyan": 9024,
      "boştu": 9025,
      "bodrum": 9026,
      "şeylerdir": 9027,
      "otel": 9028,
      "kapıları": 9029,
      "kapısından": 9030,
      "kapılıp": 9031,
      "dığımızı": 9032,
      "mazel": 9033,
      "yalın": 9034,
      "yalvardı": 9035,
      "yalpa": 9036,
      "istemeye": 9037,
      "istemedim": 9038,
      "istediğimi": 9039,
      "başkaları": 9040,
      "başkalarını": 9041,
      "başkalarından": 9042,
      "başladık": 9043,
      "adamların": 9044,
      "bulunma": 9045,
      "bulunama": 9046,
      "bulunmuştu": 9047,
      "bulunmadı": 9048,
      "bulunmasına": 9049,
      "bulunmadığı": 9050,
      "bulunmayan": 9051,
      "bulunacak": 9052,
      "bulunduğum": 9053,
      "açıklan": 9054,
      "açıktan": 9055,
      "hiçbirinin": 9056,
      "dinler": 9057,
      "tekar": 9058,
      "yaklaşıp": 9059,
      "geliyorum": 9060,
      "dönük": 9061,
      "dönmesi": 9062,
      "dönüyordu": 9063,
      "takıp": 9064,
      "takıldı": 9065,
      "takımı": 9066,
      "meyve": 9067,
      "sayıl": 9068,
      "saydın": 9069,
      "sayılmayacak": 9070,
      "somur": 9071,
      "soyut": 9072,
      "odalara": 9073,
      "sarmıştı": 9074,
      "sarılmıştı": 9075,
      "partal": 9076,
      "parlıyordu": 9077,
      "tere": 9078,
      "teras": 9079,
      "tersi": 9080,
      "tercü": 9081,
      "tertip": 9082,
      "benimdir": 9083,
      "halsiz": 9084,
      "açarak": 9085,
      "açtım": 9086,
      "açılmıştı": 9087,
      "açlıktan": 9088,
      "kaçıp": 9089,
      "ereket": 9090,
      "yazılmış": 9091,
      "yazınızı": 9092,
      "yazdığım": 9093,
      "yazmışsınız": 9094,
      "katlı": 9095,
      "tokat": 9096,
      "tombul": 9097,
      "ediyorlar": 9098,
      "candan": 9099,
      "acıdan": 9100,
      "acıları": 9101,
      "acısını": 9102,
      "ağlıyordu": 9103,
      "ağlayacak": 9104,
      "örüm": 9105,
      "olduğuma": 9106,
      "estetik": 9107,
      "söyleniyordu": 9108,
      "durumdur": 9109,
      "durumundan": 9110,
      "kanal": 9111,
      "kanları": 9112,
      "kankan": 9113,
      "ıyormuş": 9114,
      "incelik": 9115,
      "ölç": 9116,
      "öldüğü": 9117,
      "kırıntı": 9118,
      "biriken": 9119,
      "ranmış": 9120,
      "gururu": 9121,
      "ilişi": 9122,
      "sıkarak": 9123,
      "sıkıp": 9124,
      "seven": 9125,
      "sevmez": 9126,
      "sevdiğimi": 9127,
      "kadıncağız": 9128,
      "inanma": 9129,
      "inancı": 9130,
      "inanmıştı": 9131,
      "inanıyordu": 9132,
      "inanmıyor": 9133,
      "inanmıyorsunuz": 9134,
      "konuşmuş": 9135,
      "konuşmaktan": 9136,
      "lamadı": 9137,
      "lamamız": 9138,
      "şaştı": 9139,
      "çeve": 9140,
      "olurlar": 9141,
      "olurmuş": 9142,
      "olurdum": 9143,
      "hasır": 9144,
      "hastane": 9145,
      "ayırmıyordu": 9146,
      "Romanın": 9147,
      "paramı": 9148,
      "yatkın": 9149,
      "yatarken": 9150,
      "bırakma": 9151,
      "bırakır": 9152,
      "bırakarak": 9153,
      "bırakmayacak": 9154,
      "kesmiş": 9155,
      "çıkaran": 9156,
      "çıkarama": 9157,
      "çıkararak": 9158,
      "yollarda": 9159,
      "yollardan": 9160,
      "Heruvim": 9161,
      "düne": 9162,
      "uyarak": 9163,
      "yaşar": 9164,
      "yaşından": 9165,
      "Sonradan": 9166,
      "Sonraları": 9167,
      "okuyorum": 9168,
      "okurken": 9169,
      "göreceğim": 9170,
      "görebilmek": 9171,
      "görecekti": 9172,
      "korkutan": 9173,
      "korkuluk": 9174,
      "korkusundan": 9175,
      "şişeyi": 9176,
      "sallıyordu": 9177,
      "sallana": 9178,
      "salonunda": 9179,
      "ayrıldı": 9180,
      "kuşkum": 9181,
      "küçü": 9182,
      "eceğine": 9183,
      "istiyorlar": 9184,
      "öğrendiğimde": 9185,
      "üstlen": 9186,
      "üstlük": 9187,
      "altını": 9188,
      "mutfağa": 9189,
      "Kendiniz": 9190,
      "kararmıştı": 9191,
      "kararsızlık": 9192,
      "yetin": 9193,
      "yetecek": 9194,
      "luklar": 9195,
      "lukta": 9196,
      "hatırlayınca": 9197,
      "seydiniz": 9198,
      "yıllar": 9199,
      "yılların": 9200,
      "fael": 9201,
      "özellik": 9202,
[...]
